{
  "version": "1.0",
  "truncation": {
    "direction": "Right",
    "max_length": 256,
    "strategy": "LongestFirst",
    "stride": 0
  },
  "padding": {
    "strategy": {
      "Fixed": 256
    },
    "direction": "Right",
    "pad_to_multiple_of": null,
    "pad_id": 0,
    "pad_type_id": 0,
    "pad_token": "<pad>"
  },
  "added_tokens": [
    {
      "id": 0,
      "content": "<pad>",
      "single_word": false,
      "lstrip": false,
      "rstrip": false,
      "normalized": false,
      "special": true
    },
    {
      "id": 1,
      "content": "<unk>",
      "single_word": false,
      "lstrip": false,
      "rstrip": false,
      "normalized": false,
      "special": true
    },
    {
      "id": 2,
      "content": "[CLS]",
      "single_word": false,
      "lstrip": false,
      "rstrip": false,
      "normalized": false,
      "special": true
    },
    {
      "id": 3,
      "content": "[SEP]",
      "single_word": false,
      "lstrip": false,
      "rstrip": false,
      "normalized": false,
      "special": true
    },
    {
      "id": 4,
      "content": "[MASK]",
      "single_word": false,
      "lstrip": false,
      "rstrip": false,
      "normalized": false,
      "special": true
    }
  ],
  "normalizer": {
    "type": "Sequence",
    "normalizers": [
      {
        "type": "Replace",
        "pattern": {
          "String": "``"
        },
        "content": "\""
      },
      {
        "type": "Replace",
        "pattern": {
          "String": "''"
        },
        "content": "\""
      },
      {
        "type": "NFKD"
      },
      {
        "type": "StripAccents"
      },
      {
        "type": "Lowercase"
      },
      {
        "type": "Replace",
        "pattern": {
          "Regex": " {2,}"
        },
        "content": " "
      },
      {
        "type": "NFKD"
      },
      {
        "type": "StripAccents"
      },
      {
        "type": "Lowercase"
      },
      {
        "type": "Replace",
        "pattern": {
          "Regex": " {2,}"
        },
        "content": " "
      }
    ]
  },
  "pre_tokenizer": {
    "type": "Sequence",
    "pretokenizers": [
      {
        "type": "WhitespaceSplit"
      },
      {
        "type": "Metaspace",
        "replacement": "▁",
        "prepend_scheme": "always",
        "split": true
      }
    ]
  },
  "post_processor": {
    "type": "TemplateProcessing",
    "single": [
      {
        "SpecialToken": {
          "id": "[CLS]",
          "type_id": 0
        }
      },
      {
        "Sequence": {
          "id": "A",
          "type_id": 0
        }
      },
      {
        "SpecialToken": {
          "id": "[SEP]",
          "type_id": 0
        }
      }
    ],
    "pair": [
      {
        "SpecialToken": {
          "id": "[CLS]",
          "type_id": 0
        }
      },
      {
        "Sequence": {
          "id": "A",
          "type_id": 0
        }
      },
      {
        "SpecialToken": {
          "id": "[SEP]",
          "type_id": 0
        }
      },
      {
        "Sequence": {
          "id": "B",
          "type_id": 1
        }
      },
      {
        "SpecialToken": {
          "id": "[SEP]",
          "type_id": 1
        }
      }
    ],
    "special_tokens": {
      "[CLS]": {
        "id": "[CLS]",
        "ids": [
          2
        ],
        "tokens": [
          "[CLS]"
        ]
      },
      "[SEP]": {
        "id": "[SEP]",
        "ids": [
          3
        ],
        "tokens": [
          "[SEP]"
        ]
      }
    }
  },
  "decoder": {
    "type": "Metaspace",
    "replacement": "▁",
    "prepend_scheme": "always",
    "split": true
  },
  "model": {
    "type": "Unigram",
    "unk_id": 1,
    "vocab": [
      [
        "<pad>",
        0.0
      ],
      [
        "<unk>",
        0.0
      ],
      [
        "[CLS]",
        0.0
      ],
      [
        "[SEP]",
        0.0
      ],
      [
        "[MASK]",
        0.0
      ],
      [
        "▁.",
        -3.5142595767974854
      ],
      [
        "▁,",
        -3.804913282394409
      ],
      [
        "▁।",
        -4.768289089202881
      ],
      [
        "▁",
        -4.799468994140625
      ],
      [
        ".",
        -5.177679061889648
      ],
      [
        "▁के",
        -5.231420516967773
      ],
      [
        "▁the",
        -5.234536647796631
      ],
      [
        ",",
        -5.320943832397461
      ],
      [
        "▁-",
        -5.474064350128174
      ],
      [
        "▁में",
        -5.517772197723389
      ],
      [
        "।",
        -5.519248962402344
      ],
      [
        "▁है",
        -5.645498752593994
      ],
      [
        "▁की",
        -5.687524795532227
      ],
      [
        "▁of",
        -5.894613265991211
      ],
      [
        "▁છે",
        -5.94137716293335
      ],
      [
        "▁(",
        -5.953579902648926
      ],
      [
        "▁to",
        -5.987720966339111
      ],
      [
        "▁को",
        -5.991053104400635
      ],
      [
        "▁से",
        -6.054969310760498
      ],
      [
        "▁and",
        -6.059388637542725
      ],
      [
        "▁ਦੇ",
        -6.125123500823975
      ],
      [
        "▁in",
        -6.129239082336426
      ],
      [
        "▁'",
        -6.1546854972839355
      ],
      [
        "▁)",
        -6.161086559295654
      ],
      [
        "▁का",
        -6.229870319366455
      ],
      [
        "-",
        -6.27202844619751
      ],
      [
        "▁और",
        -6.272128582000732
      ],
      [
        "s",
        -6.277133941650391
      ],
      [
        "▁a",
        -6.302708625793457
      ],
      [
        "▁ने",
        -6.33286714553833
      ],
      [
        "▁ਹੈ",
        -6.344041347503662
      ],
      [
        "▁ਨੂੰ",
        -6.4604010581970215
      ],
      [
        "▁पर",
        -6.474960803985596
      ],
      [
        "▁ਦੀ",
        -6.487711429595947
      ],
      [
        "▁:",
        -6.500150680541992
      ],
      [
        "▁\"",
        -6.597071647644043
      ],
      [
        "▁‘",
        -6.620122909545898
      ],
      [
        "▁हैं",
        -6.630570888519287
      ],
      [
        "▁कि",
        -6.6326904296875
      ],
      [
        "▁અને",
        -6.645360469818115
      ],
      [
        "▁एक",
        -6.778230667114258
      ],
      [
        "’",
        -6.78371524810791
      ],
      [
        "▁आहे",
        -6.7965192794799805
      ],
      [
        "▁भी",
        -6.835573196411133
      ],
      [
        "▁on",
        -6.867440223693848
      ],
      [
        "ની",
        -6.874038219451904
      ],
      [
        "▁ਅਤੇ",
        -6.904908180236816
      ],
      [
        "▁’",
        -6.91280460357666
      ],
      [
        "്",
        -6.936440467834473
      ],
      [
        "▁is",
        -6.969008922576904
      ],
      [
        "▁for",
        -6.975739002227783
      ],
      [
        "▁ਨੇ",
        -6.991122245788574
      ],
      [
        "▁?",
        -7.017500400543213
      ],
      [
        "ের",
        -7.035048007965088
      ],
      [
        "▁ਸਿੰਘ",
        -7.041203022003174
      ],
      [
        "▁ਦਾ",
        -7.0561442375183105
      ],
      [
        "ed",
        -7.062346935272217
      ],
      [
        "▁ਤੇ",
        -7.066661357879639
      ],
      [
        "▁that",
        -7.080794334411621
      ],
      [
        "ને",
        -7.090923309326172
      ],
      [
        "▁ಮತ್ತು",
        -7.1173834800720215
      ],
      [
        "▁लिए",
        -7.11949348449707
      ],
      [
        "ing",
        -7.122037887573242
      ],
      [
        "▁कर",
        -7.122386932373047
      ],
      [
        "▁The",
        -7.126194000244141
      ],
      [
        "▁इस",
        -7.126336097717285
      ],
      [
        "▁ही",
        -7.1329779624938965
      ],
      [
        "▁नहीं",
        -7.151136875152588
      ],
      [
        "▁ਇਸ",
        -7.153107166290283
      ],
      [
        "▁ਕਿ",
        -7.166784286499023
      ],
      [
        "▁या",
        -7.186372756958008
      ],
      [
        "▁આ",
        -7.19309663772583
      ],
      [
        "માં",
        -7.1967997550964355
      ],
      [
        "র",
        -7.198969841003418
      ],
      [
        "▁ਲਈ",
        -7.235838413238525
      ],
      [
        "▁“",
        -7.24045991897583
      ],
      [
        "▁માટે",
        -7.261802673339844
      ],
      [
        "▁કે",
        -7.2660722732543945
      ],
      [
        "▁तो",
        -7.284152507781982
      ],
      [
        "ના",
        -7.3024396896362305
      ],
      [
        "ी",
        -7.305837631225586
      ],
      [
        "▁आणि",
        -7.319936275482178
      ],
      [
        "▁;",
        -7.37549352645874
      ],
      [
        "▁ও",
        -7.384247779846191
      ],
      [
        "▁ਨਾਲ",
        -7.3873090744018555
      ],
      [
        "▁with",
        -7.388640880584717
      ],
      [
        "▁हो",
        -7.391800403594971
      ],
      [
        "▁ఈ",
        -7.3967204093933105
      ],
      [
        "▁ਵਿੱਚ",
        -7.404710292816162
      ],
      [
        "▁किया",
        -7.411792755126953
      ],
      [
        "▁was",
        -7.431310176849365
      ],
      [
        "▁ਤੋਂ",
        -7.463433265686035
      ],
      [
        "▁by",
        -7.464618682861328
      ],
      [
        "▁s",
        -7.476030349731445
      ],
      [
        "ം",
        -7.48114013671875
      ],
      [
        "ਾਂ",
        -7.481290340423584
      ],
      [
        "ും",
        -7.496605396270752
      ],
      [
        "▁మరియు",
        -7.504645347595215
      ],
      [
        "▁said",
        -7.511557102203369
      ],
      [
        "▁ಈ",
        -7.516613960266113
      ],
      [
        "▁করে",
        -7.533267021179199
      ],
      [
        "▁था",
        -7.534368515014648
      ],
      [
        "▁ਵਿਚ",
        -7.537642002105713
      ],
      [
        "▁ഒരു",
        -7.5376996994018555
      ],
      [
        "▁না",
        -7.539090156555176
      ],
      [
        "▁એક",
        -7.540152072906494
      ],
      [
        "▁as",
        -7.549811363220215
      ],
      [
        "ों",
        -7.566741466522217
      ],
      [
        "...",
        -7.56900691986084
      ],
      [
        "▁यह",
        -7.574657440185547
      ],
      [
        "▁कहा",
        -7.582759857177734
      ],
      [
        "▁!",
        -7.5860700607299805
      ],
      [
        "▁at",
        -7.586656093597412
      ],
      [
        "▁has",
        -7.589089870452881
      ],
      [
        "▁गया",
        -7.591853141784668
      ],
      [
        "▁ਹਨ",
        -7.597372531890869
      ],
      [
        "▁be",
        -7.606612682342529
      ],
      [
        "▁2",
        -7.610001564025879
      ],
      [
        "▁करने",
        -7.623778343200684
      ],
      [
        "▁તે",
        -7.625443458557129
      ],
      [
        "ে",
        -7.642823696136475
      ],
      [
        "▁|",
        -7.643077850341797
      ],
      [
        "▁from",
        -7.655871391296387
      ],
      [
        "ம்",
        -7.6580328941345215
      ],
      [
        ")",
        -7.661099433898926
      ],
      [
        "▁व",
        -7.67161750793457
      ],
      [
        "▁”",
        -7.677515029907227
      ],
      [
        "े",
        -7.678142070770264
      ],
      [
        "▁এই",
        -7.679801940917969
      ],
      [
        "▁IST",
        -7.69294548034668
      ],
      [
        "▁साथ",
        -7.696471691131592
      ],
      [
        "▁ਵੀ",
        -7.700821399688721
      ],
      [
        "▁પણ",
        -7.702358245849609
      ],
      [
        "ा",
        -7.703981876373291
      ],
      [
        "ੀ",
        -7.709312915802002
      ],
      [
        "ରେ",
        -7.711160182952881
      ],
      [
        "ను",
        -7.7153449058532715
      ],
      [
        "▁10",
        -7.726571083068848
      ],
      [
        "▁3",
        -7.726864814758301
      ],
      [
        "ৰ",
        -7.7294745445251465
      ],
      [
        "▁it",
        -7.730920791625977
      ],
      [
        "▁પર",
        -7.731234073638916
      ],
      [
        "નો",
        -7.7471184730529785
      ],
      [
        "లో",
        -7.751067161560059
      ],
      [
        "▁ఒక",
        -7.76899528503418
      ],
      [
        "▁are",
        -7.772410869598389
      ],
      [
        "▁1",
        -7.772700309753418
      ],
      [
        "ই",
        -7.7892022132873535
      ],
      [
        "▁ಎಂದು",
        -7.791493892669678
      ],
      [
        "▁have",
        -7.79280948638916
      ],
      [
        "▁থেকে",
        -7.803423881530762
      ],
      [
        "▁ਚ",
        -7.816227912902832
      ],
      [
        "▁बाद",
        -7.828334331512451
      ],
      [
        "▁ਸੀ",
        -7.838308334350586
      ],
      [
        "▁5",
        -7.841224670410156
      ],
      [
        "▁এ",
        -7.859584331512451
      ],
      [
        "થી",
        -7.860895156860352
      ],
      [
        "কে",
        -7.863956928253174
      ],
      [
        "▁ਕਰਨ",
        -7.868987560272217
      ],
      [
        "▁ਇੱਕ",
        -7.873593330383301
      ],
      [
        "▁જ",
        -7.874912738800049
      ],
      [
        "▁/",
        -7.875252723693848
      ],
      [
        "▁સાથે",
        -7.879146099090576
      ],
      [
        "▁will",
        -7.8958234786987305
      ],
      [
        "కు",
        -7.910527229309082
      ],
      [
        "ಗಳನ್ನು",
        -7.910804271697998
      ],
      [
        "▁ਇਹ",
        -7.9206342697143555
      ],
      [
        "▁4",
        -7.922363758087158
      ],
      [
        "ે",
        -7.925589561462402
      ],
      [
        "లు",
        -7.929717063903809
      ],
      [
        "ಗಳು",
        -7.940366744995117
      ],
      [
        "च्या",
        -7.946845054626465
      ],
      [
        "▁दिया",
        -7.949187278747559
      ],
      [
        "▁হয়",
        -7.950647830963135
      ],
      [
        "▁not",
        -7.958137512207031
      ],
      [
        "ని",
        -7.959243297576904
      ],
      [
        "ો",
        -7.960324764251709
      ],
      [
        "▁કરી",
        -7.960599422454834
      ],
      [
        "▁अपने",
        -7.96516227722168
      ],
      [
        "▁रहे",
        -7.969789505004883
      ],
      [
        "▁I",
        -7.970457077026367
      ],
      [
        "ದ",
        -7.972354412078857
      ],
      [
        "▁ਕੀਤਾ",
        -7.987895965576172
      ],
      [
        "ப்",
        -7.9909844398498535
      ],
      [
        "▁2019",
        -8.002602577209473
      ],
      [
        "ੇ",
        -8.002777099609375
      ],
      [
        "ವನ್ನು",
        -8.024699211120605
      ],
      [
        "▁–",
        -8.026084899902344
      ],
      [
        "▁he",
        -8.02665901184082
      ],
      [
        "▁ਕੇ",
        -8.030352592468262
      ],
      [
        "ও",
        -8.031082153320312
      ],
      [
        "▁his",
        -8.034154891967773
      ],
      [
        "▁हुए",
        -8.038252830505371
      ],
      [
        "નું",
        -8.044787406921387
      ],
      [
        "▁तक",
        -8.046427726745605
      ],
      [
        "க்",
        -8.048349380493164
      ],
      [
        "▁A",
        -8.04980754852295
      ],
      [
        "▁ഈ",
        -8.052618026733398
      ],
      [
        "ला",
        -8.056809425354004
      ],
      [
        "▁जा",
        -8.062813758850098
      ],
      [
        "▁रहा",
        -8.071191787719727
      ],
      [
        "▁ஒரு",
        -8.072941780090332
      ],
      [
        "▁an",
        -8.073007583618164
      ],
      [
        "ਾ",
        -8.076630592346191
      ],
      [
        "▁করা",
        -8.08495807647705
      ],
      [
        "▁India",
        -8.09091854095459
      ],
      [
        "ಗೆ",
        -8.093622207641602
      ],
      [
        "▁ਉਨ੍ਹਾਂ",
        -8.095005989074707
      ],
      [
        "▁ਗਿਆ",
        -8.097442626953125
      ],
      [
        "గా",
        -8.101561546325684
      ],
      [
        "യും",
        -8.102442741394043
      ],
      [
        ":",
        -8.115640640258789
      ],
      [
        "ने",
        -8.120061874389648
      ],
      [
        "ી",
        -8.1222562789917
      ],
      [
        "▁जो",
        -8.127553939819336
      ],
      [
        "▁6",
        -8.128369331359863
      ],
      [
        "▁இந்த",
        -8.13143253326416
      ],
      [
        "▁सरकार",
        -8.134425163269043
      ],
      [
        "▁थी",
        -8.1348237991333
      ],
      [
        "▁रही",
        -8.141695022583008
      ],
      [
        "▁என்று",
        -8.143274307250977
      ],
      [
        "▁ਹੋ",
        -8.146305084228516
      ],
      [
        "▁এবং",
        -8.15686321258545
      ],
      [
        "▁नाही",
        -8.15812873840332
      ],
      [
        "त",
        -8.168988227844238
      ],
      [
        "▁ಒಂದು",
        -8.172450065612793
      ],
      [
        "తో",
        -8.175024032592773
      ],
      [
        "च",
        -8.17516803741455
      ],
      [
        "▁ਕਰ",
        -8.175277709960938
      ],
      [
        "▁હતી",
        -8.1856050491333
      ],
      [
        "▁20",
        -8.188201904296875
      ],
      [
        "▁न",
        -8.190826416015625
      ],
      [
        "▁उन्होंने",
        -8.201773643493652
      ],
      [
        "▁এক",
        -8.20395565032959
      ],
      [
        "ിൽ",
        -8.211188316345215
      ],
      [
        "▁लेकिन",
        -8.211624145507812
      ],
      [
        "▁गई",
        -8.21531867980957
      ],
      [
        "ು",
        -8.216694831848145
      ],
      [
        "▁જે",
        -8.217920303344727
      ],
      [
        "ു",
        -8.219185829162598
      ],
      [
        "▁ਹੀ",
        -8.223102569580078
      ],
      [
        "▁PM",
        -8.22317123413086
      ],
      [
        "▁15",
        -8.231083869934082
      ],
      [
        "▁आहेत",
        -8.234830856323242
      ],
      [
        "▁थे",
        -8.235522270202637
      ],
      [
        "▁12",
        -8.237090110778809
      ],
      [
        "▁had",
        -8.24328327178955
      ],
      [
        "▁হয়েছে",
        -8.250630378723145
      ],
      [
        "▁हे",
        -8.25093936920166
      ],
      [
        "▁તો",
        -8.251803398132324
      ],
      [
        "▁this",
        -8.260947227478027
      ],
      [
        "▁তিনি",
        -8.264076232910156
      ],
      [
        "▁ਨਹੀਂ",
        -8.272387504577637
      ],
      [
        "▁''",
        -8.272648811340332
      ],
      [
        "▁નથી",
        -8.272819519042969
      ],
      [
        "▁वह",
        -8.277935028076172
      ],
      [
        "▁who",
        -8.281195640563965
      ],
      [
        "▁which",
        -8.292115211486816
      ],
      [
        "e",
        -8.294534683227539
      ],
      [
        "▁their",
        -8.297142028808594
      ],
      [
        "கள்",
        -8.298008918762207
      ],
      [
        "ly",
        -8.298754692077637
      ],
      [
        "▁होते",
        -8.305980682373047
      ],
      [
        "▁7",
        -8.30652904510498
      ],
      [
        "த்",
        -8.308506965637207
      ],
      [
        "▁ಅವರು",
        -8.310260772705078
      ],
      [
        "▁also",
        -8.31103515625
      ],
      [
        "▁2018",
        -8.312161445617676
      ],
      [
        "▁been",
        -8.312649726867676
      ],
      [
        "▁ਉਸ",
        -8.318207740783691
      ],
      [
        "▁ఆ",
        -8.31881332397461
      ],
      [
        "▁कुछ",
        -8.320808410644531
      ],
      [
        "▁भारत",
        -8.321349143981934
      ],
      [
        "▁8",
        -8.329228401184082
      ],
      [
        "ൻ",
        -8.329553604125977
      ],
      [
        "એ",
        -8.330436706542969
      ],
      [
        "ാണ്",
        -8.33528995513916
      ],
      [
        "▁కూడా",
        -8.337137222290039
      ],
      [
        "▁হবে",
        -8.339202880859375
      ],
      [
        "▁पहले",
        -8.34327507019043
      ],
      [
        "▁ਕਿਹਾ",
        -8.344416618347168
      ],
      [
        "▁होता",
        -8.349566459655762
      ],
      [
        "▁তার",
        -8.351457595825195
      ],
      [
        "ही",
        -8.353534698486328
      ],
      [
        "▁নিয়ে",
        -8.359841346740723
      ],
      [
        "ಕ್ಕೆ",
        -8.362011909484863
      ],
      [
        "▁ये",
        -8.366536140441895
      ],
      [
        "▁ਕੀਤੀ",
        -8.367775917053223
      ],
      [
        "?",
        -8.369297981262207
      ],
      [
        "चे",
        -8.370859146118164
      ],
      [
        "▁లో",
        -8.372562408447266
      ],
      [
        "ం",
        -8.377943992614746
      ],
      [
        "▁were",
        -8.381577491760254
      ],
      [
        "▁आज",
        -8.386000633239746
      ],
      [
        "▁काम",
        -8.38797664642334
      ],
      [
        "▁জন্য",
        -8.38907527923584
      ],
      [
        "▁होने",
        -8.392157554626465
      ],
      [
        "▁11",
        -8.394563674926758
      ],
      [
        "चा",
        -8.397624969482422
      ],
      [
        "▁যে",
        -8.400391578674316
      ],
      [
        "ക്ക്",
        -8.408639907836914
      ],
      [
        "▁करते",
        -8.410239219665527
      ],
      [
        "▁আর",
        -8.410857200622559
      ],
      [
        "ত",
        -8.411620140075684
      ],
      [
        "ும்",
        -8.418547630310059
      ],
      [
        "▁તમે",
        -8.423452377319336
      ],
      [
        "▁अब",
        -8.426963806152344
      ],
      [
        "▁యొక్క",
        -8.428071022033691
      ],
      [
        "▁ਇਕ",
        -8.429120063781738
      ],
      [
        "▁वाले",
        -8.430333137512207
      ],
      [
        "▁ਉਹ",
        -8.431533813476562
      ],
      [
        "కి",
        -8.431608200073242
      ],
      [
        "▁लोगों",
        -8.432381629943848
      ],
      [
        "ं",
        -8.43354320526123
      ],
      [
        "▁એ",
        -8.437047958374023
      ],
      [
        "ର",
        -8.437749862670898
      ],
      [
        "▁30",
        -8.440004348754883
      ],
      [
        "▁...",
        -8.441681861877441
      ],
      [
        "▁दी",
        -8.451628684997559
      ],
      [
        "▁ಇದು",
        -8.454326629638672
      ],
      [
        "ാൻ",
        -8.454839706420898
      ],
      [
        "d",
        -8.455681800842285
      ],
      [
        "ची",
        -8.456378936767578
      ],
      [
        "▁कोई",
        -8.457845687866211
      ],
      [
        "▁ਜੋ",
        -8.458433151245117
      ],
      [
        "து",
        -8.459959030151367
      ],
      [
        "▁18",
        -8.462517738342285
      ],
      [
        "യുടെ",
        -8.467437744140625
      ],
      [
        "ത്",
        -8.469225883483887
      ],
      [
        "▁तर",
        -8.469388008117676
      ],
      [
        "y",
        -8.472290992736816
      ],
      [
        "▁गए",
        -8.47381591796875
      ],
      [
        "କୁ",
        -8.481553077697754
      ],
      [
        "▁अपनी",
        -8.482647895812988
      ],
      [
        "न",
        -8.483451843261719
      ],
      [
        "▁9",
        -8.485563278198242
      ],
      [
        "▁पुलिस",
        -8.485841751098633
      ],
      [
        "▁इसके",
        -8.494833946228027
      ],
      [
        "▁होती",
        -8.495244026184082
      ],
      [
        "▁आप",
        -8.496687889099121
      ],
      [
        "▁सिंह",
        -8.497504234313965
      ],
      [
        "▁its",
        -8.49758529663086
      ],
      [
        "▁यांनी",
        -8.50699520111084
      ],
      [
        "▁more",
        -8.511978149414062
      ],
      [
        "▁ते",
        -8.513866424560547
      ],
      [
        "ಃ",
        -8.514235496520996
      ],
      [
        "ை",
        -8.514484405517578
      ],
      [
        "വും",
        -8.518494606018066
      ],
      [
        "­",
        -8.531126022338867
      ],
      [
        "ਆਂ",
        -8.531377792358398
      ],
      [
        "▁ਜਾ",
        -8.531400680541992
      ],
      [
        "▁করতে",
        -8.5324125289917
      ],
      [
        "▁ਵੱਲੋਂ",
        -8.535284996032715
      ],
      [
        "ಯನ್ನು",
        -8.536062240600586
      ],
      [
        "▁ಹಾಗೂ",
        -8.546367645263672
      ],
      [
        "▁ਪਰ",
        -8.54648208618164
      ],
      [
        "▁बात",
        -8.5520658493042
      ],
      [
        "তে",
        -8.552696228027344
      ],
      [
        "▁देश",
        -8.554632186889648
      ],
      [
        "▁किसी",
        -8.554875373840332
      ],
      [
        "▁હોય",
        -8.567782402038574
      ],
      [
        "▁একটি",
        -8.570077896118164
      ],
      [
        "र",
        -8.574308395385742
      ],
      [
        "▁all",
        -8.578537940979004
      ],
      [
        "▁অ",
        -8.579658508300781
      ],
      [
        "▁மற்றும்",
        -8.585090637207031
      ],
      [
        "യിൽ",
        -8.585515022277832
      ],
      [
        "▁ਪੰਜਾਬ",
        -8.586345672607422
      ],
      [
        "▁હતો",
        -8.588902473449707
      ],
      [
        "▁25",
        -8.591052055358887
      ],
      [
        "ನ್ನು",
        -8.59437370300293
      ],
      [
        "▁In",
        -8.594588279724121
      ],
      [
        "▁ಆದರೆ",
        -8.596000671386719
      ],
      [
        "▁14",
        -8.597495079040527
      ],
      [
        "▁साल",
        -8.599555015563965
      ],
      [
        "ಲು",
        -8.601961135864258
      ],
      [
        "▁but",
        -8.604360580444336
      ],
      [
        "ন",
        -8.606595993041992
      ],
      [
        "▁2017",
        -8.609329223632812
      ],
      [
        "▁आ",
        -8.611251831054688
      ],
      [
        "ൽ",
        -8.612046241760254
      ],
      [
        "▁``",
        -8.613443374633789
      ],
      [
        "▁എന്ന",
        -8.614123344421387
      ],
      [
        "▁or",
        -8.619140625
      ],
      [
        "▁up",
        -8.62146282196045
      ],
      [
        "▁বলেন",
        -8.623242378234863
      ],
      [
        "▁ನೀವು",
        -8.623730659484863
      ],
      [
        "ता",
        -8.624753952026367
      ],
      [
        "▁మీరు",
        -8.626172065734863
      ],
      [
        "▁after",
        -8.630230903625488
      ],
      [
        "▁હતા",
        -8.630404472351074
      ],
      [
        "▁என",
        -8.631231307983398
      ],
      [
        "ు",
        -8.633134841918945
      ],
      [
        "'",
        -8.633495330810547
      ],
      [
        "▁ਆਪਣੇ",
        -8.63630199432373
      ],
      [
        "▁ਤਾਂ",
        -8.636348724365234
      ],
      [
        "▁সঙ্গে",
        -8.638113021850586
      ],
      [
        "▁કરવા",
        -8.638394355773926
      ],
      [
        "ਚ",
        -8.639366149902344
      ],
      [
        "▁16",
        -8.63990306854248
      ],
      [
        "▁they",
        -8.64026927947998
      ],
      [
        "ే",
        -8.643595695495605
      ],
      [
        "▁આવે",
        -8.643961906433105
      ],
      [
        "▁হয়ে",
        -8.646867752075195
      ],
      [
        "▁કરવામાં",
        -8.647146224975586
      ],
      [
        "ில்",
        -8.648448944091797
      ],
      [
        "▁ആ",
        -8.652975082397461
      ],
      [
        "ಯ",
        -8.65507698059082
      ],
      [
        "▁दो",
        -8.656075477600098
      ],
      [
        "▁बार",
        -8.658406257629395
      ],
      [
        "ಗಳ",
        -8.659260749816895
      ],
      [
        "▁लेकर",
        -8.659574508666992
      ],
      [
        "▁S",
        -8.660755157470703
      ],
      [
        "▁तरह",
        -8.661803245544434
      ],
      [
        "▁हुआ",
        -8.662955284118652
      ],
      [
        "ർ",
        -8.663468360900879
      ],
      [
        "▁13",
        -8.668662071228027
      ],
      [
        "▁दिल्ली",
        -8.669047355651855
      ],
      [
        "▁ಆ",
        -8.669459342956543
      ],
      [
        "▁जब",
        -8.67302131652832
      ],
      [
        "▁बताया",
        -8.6769437789917
      ],
      [
        "▁ఇది",
        -8.678784370422363
      ],
      [
        "▁ଓ",
        -8.679057121276855
      ],
      [
        "▁কিন্তু",
        -8.680132865905762
      ],
      [
        "/",
        -8.68044376373291
      ],
      [
        "▁समय",
        -8.686417579650879
      ],
      [
        "ச்",
        -8.689373016357422
      ],
      [
        "▁दिन",
        -8.689735412597656
      ],
      [
        "▁కోసం",
        -8.690105438232422
      ],
      [
        "”",
        -8.69338607788086
      ],
      [
        "▁one",
        -8.695408821105957
      ],
      [
        "▁এর",
        -8.695622444152832
      ],
      [
        "ின்",
        -8.696218490600586
      ],
      [
        "▁ਦੀਆਂ",
        -8.698505401611328
      ],
      [
        "▁हा",
        -8.699007034301758
      ],
      [
        "▁17",
        -8.699103355407715
      ],
      [
        "▁હતું",
        -8.699488639831543
      ],
      [
        "ক",
        -8.702079772949219
      ],
      [
        "▁कई",
        -8.702375411987305
      ],
      [
        "ನ",
        -8.703356742858887
      ],
      [
        "▁അ",
        -8.705207824707031
      ],
      [
        "▁શકે",
        -8.706937789916992
      ],
      [
        "▁out",
        -8.709012985229492
      ],
      [
        "য়",
        -8.709339141845703
      ],
      [
        "▁उनके",
        -8.712265014648438
      ],
      [
        "▁ക",
        -8.712915420532227
      ],
      [
        "▁over",
        -8.714735984802246
      ],
      [
        "▁can",
        -8.721120834350586
      ],
      [
        "▁ਜਿਸ",
        -8.721388816833496
      ],
      [
        "ਤੇ",
        -8.721404075622559
      ],
      [
        "▁19",
        -8.725190162658691
      ],
      [
        "▁રીતે",
        -8.733426094055176
      ],
      [
        "▁কথা",
        -8.733919143676758
      ],
      [
        "స్",
        -8.737289428710938
      ],
      [
        "▁On",
        -8.737405776977539
      ],
      [
        "▁AM",
        -8.737763404846191
      ],
      [
        "▁દ્વારા",
        -8.741752624511719
      ],
      [
        "▁ఉంది",
        -8.743694305419922
      ],
      [
        "▁বলে",
        -8.7445650100708
      ],
      [
        "▁इन",
        -8.746143341064453
      ],
      [
        "▁જો",
        -8.746780395507812
      ],
      [
        "ರು",
        -8.749037742614746
      ],
      [
        "▁हुई",
        -8.749893188476562
      ],
      [
        "▁would",
        -8.754194259643555
      ],
      [
        "▁করেন",
        -8.755249977111816
      ],
      [
        "▁வேண்டும்",
        -8.756370544433594
      ],
      [
        "▁0",
        -8.760920524597168
      ],
      [
        "▁am",
        -8.761918067932129
      ],
      [
        "টি",
        -8.762906074523926
      ],
      [
        "▁about",
        -8.762928009033203
      ],
      [
        "▁Updated",
        -8.763494491577148
      ],
      [
        "▁આવી",
        -8.766849517822266
      ],
      [
        "!",
        -8.771183013916016
      ],
      [
        "▁केली",
        -8.772074699401855
      ],
      [
        "▁It",
        -8.77216625213623
      ],
      [
        "▁সেই",
        -8.77531623840332
      ],
      [
        "▁her",
        -8.776677131652832
      ],
      [
        "▁भारतीय",
        -8.77772045135498
      ],
      [
        "▁राज्य",
        -8.778005599975586
      ],
      [
        "▁ਗਈ",
        -8.783316612243652
      ],
      [
        "▁ਨਾ",
        -8.784316062927246
      ],
      [
        "▁বা",
        -8.786296844482422
      ],
      [
        "ल",
        -8.787176132202148
      ],
      [
        "▁પરંતુ",
        -8.787789344787598
      ],
      [
        "▁द्वारा",
        -8.79049015045166
      ],
      [
        "▁फिर",
        -8.790786743164062
      ],
      [
        "▁we",
        -8.790813446044922
      ],
      [
        "▁പി",
        -8.792080879211426
      ],
      [
        "्स",
        -8.793463706970215
      ],
      [
        "स",
        -8.79526138305664
      ],
      [
        "▁ಅವರ",
        -8.79896354675293
      ],
      [
        "▁people",
        -8.799185752868652
      ],
      [
        "▁পর",
        -8.8003511428833
      ],
      [
        "▁ન",
        -8.801236152648926
      ],
      [
        "▁वे",
        -8.801919937133789
      ],
      [
        "▁तीन",
        -8.802249908447266
      ],
      [
        "▁વધુ",
        -8.804586410522461
      ],
      [
        "▁કરે",
        -8.806062698364258
      ],
      [
        "▁कारण",
        -8.80733585357666
      ],
      [
        "▁ਸਨ",
        -8.809256553649902
      ],
      [
        "ి",
        -8.809757232666016
      ],
      [
        "▁24",
        -8.813294410705566
      ],
      [
        "क",
        -8.813566207885742
      ],
      [
        "कर",
        -8.816913604736328
      ],
      [
        "▁ਰਹੇ",
        -8.817413330078125
      ],
      [
        "ഃ",
        -8.817468643188477
      ],
      [
        "▁ਸਰਕਾਰ",
        -8.818222045898438
      ],
      [
        "▁government",
        -8.822090148925781
      ],
      [
        "పై",
        -8.822280883789062
      ],
      [
        "▁you",
        -8.822514533996582
      ],
      [
        "▁21",
        -8.825498580932617
      ],
      [
        "▁सभी",
        -8.827335357666016
      ],
      [
        "▁ಅಥವಾ",
        -8.827350616455078
      ],
      [
        "▁प्रदेश",
        -8.82766056060791
      ],
      [
        "ల",
        -8.827712059020996
      ],
      [
        "▁અથવા",
        -8.828692436218262
      ],
      [
        "▁उन्हें",
        -8.832231521606445
      ],
      [
        "▁जाता",
        -8.833094596862793
      ],
      [
        "▁చాలా",
        -8.83393383026123
      ],
      [
        "▁हम",
        -8.836410522460938
      ],
      [
        "ঃ",
        -8.84531307220459
      ],
      [
        "▁সময়",
        -8.847319602966309
      ],
      [
        "ি",
        -8.850172996520996
      ],
      [
        "▁যায়",
        -8.85094928741455
      ],
      [
        "▁സി",
        -8.853226661682129
      ],
      [
        "ு",
        -8.854935646057129
      ],
      [
        "▁দিয়ে",
        -8.855237007141113
      ],
      [
        "▁মধ্যে",
        -8.856269836425781
      ],
      [
        "▁%",
        -8.858299255371094
      ],
      [
        "▁എ",
        -8.858469009399414
      ],
      [
        "▁50",
        -8.86186408996582
      ],
      [
        "▁ਹੋਰ",
        -8.861923217773438
      ],
      [
        "ਨ",
        -8.862847328186035
      ],
      [
        "▁তা",
        -8.8680419921875
      ],
      [
        "▁होगा",
        -8.8682222366333
      ],
      [
        "▁two",
        -8.869482040405273
      ],
      [
        "▁ਦਿੱਤਾ",
        -8.870274543762207
      ],
      [
        "▁जाने",
        -8.870532989501953
      ],
      [
        "▁घर",
        -8.871563911437988
      ],
      [
        "▁*",
        -8.872417449951172
      ],
      [
        "▁সে",
        -8.876555442810059
      ],
      [
        "▁அவர்",
        -8.877323150634766
      ],
      [
        "ിന്റെ",
        -8.883533477783203
      ],
      [
        "▁ಮೇಲೆ",
        -8.885319709777832
      ],
      [
        "▁टीम",
        -8.886061668395996
      ],
      [
        "ರ",
        -8.886918067932129
      ],
      [
        "ী",
        -8.890650749206543
      ],
      [
        "▁He",
        -8.894853591918945
      ],
      [
        "▁रूप",
        -8.895018577575684
      ],
      [
        "ా",
        -8.896285057067871
      ],
      [
        "वर",
        -8.897518157958984
      ],
      [
        "मध्ये",
        -8.89775562286377
      ],
      [
        "▁नाम",
        -8.898185729980469
      ],
      [
        "▁मोदी",
        -8.899330139160156
      ],
      [
        "া",
        -8.90026569366455
      ],
      [
        "ಿ",
        -8.900910377502441
      ],
      [
        "ವು",
        -8.901043891906738
      ],
      [
        "▁Delhi",
        -8.902058601379395
      ],
      [
        "▁2016",
        -8.90347671508789
      ],
      [
        "ਰ",
        -8.904335975646973
      ],
      [
        "▁असे",
        -8.907299995422363
      ],
      [
        "▁काही",
        -8.90967845916748
      ],
      [
        "▁pm",
        -8.909927368164062
      ],
      [
        "▁करना",
        -8.9108247756958
      ],
      [
        "▁May",
        -8.912872314453125
      ],
      [
        "▁છો",
        -8.913393020629883
      ],
      [
        "▁Rs",
        -8.913490295410156
      ],
      [
        "▁करण्यात",
        -8.913724899291992
      ],
      [
        "▁अधिक",
        -8.914609909057617
      ],
      [
        "▁என்ற",
        -8.915785789489746
      ],
      [
        "▁सकता",
        -8.915796279907227
      ],
      [
        "▁पण",
        -8.917640686035156
      ],
      [
        "▁लोग",
        -8.918334007263184
      ],
      [
        "a",
        -8.920426368713379
      ],
      [
        "▁केले",
        -8.92331600189209
      ],
      [
        "t",
        -8.923368453979492
      ],
      [
        "▁P",
        -8.926080703735352
      ],
      [
        "▁அந்த",
        -8.92647933959961
      ],
      [
        "▁22",
        -8.92680549621582
      ],
      [
        "▁తన",
        -8.9268798828125
      ],
      [
        "▁ଏହି",
        -8.926936149597168
      ],
      [
        "দের",
        -8.927508354187012
      ],
      [
        "யும்",
        -8.930887222290039
      ],
      [
        "▁আমি",
        -8.934305191040039
      ],
      [
        "▁कांग्रेस",
        -8.935420036315918
      ],
      [
        "യാണ്",
        -8.936710357666016
      ],
      [
        "▁પછી",
        -8.94312858581543
      ],
      [
        "▁ಬಗ್ಗೆ",
        -8.944721221923828
      ],
      [
        "▁C",
        -8.944957733154297
      ],
      [
        "െ",
        -8.945422172546387
      ],
      [
        "▁बहुत",
        -8.945634841918945
      ],
      [
        "▁M",
        -8.94580078125
      ],
      [
        "▁ನಿಮ್ಮ",
        -8.946488380432129
      ],
      [
        "ना",
        -8.948288917541504
      ],
      [
        "ः",
        -8.952909469604492
      ],
      [
        "ದಲ್ಲಿ",
        -8.953025817871094
      ],
      [
        "▁అని",
        -8.953654289245605
      ],
      [
        "ത്തിൽ",
        -8.954280853271484
      ],
      [
        "▁ਗਏ",
        -8.956169128417969
      ],
      [
        "▁लिया",
        -8.959695816040039
      ],
      [
        "க்கு",
        -8.959789276123047
      ],
      [
        "▁हर",
        -8.961319923400879
      ],
      [
        "▁లేదా",
        -8.96543025970459
      ],
      [
        "▁എന്നാൽ",
        -8.9723539352417
      ],
      [
        "▁തന്നെ",
        -8.972929954528809
      ],
      [
        "▁चुनाव",
        -8.974525451660156
      ],
      [
        "▁23",
        -8.977150917053223
      ],
      [
        "▁కానీ",
        -8.977741241455078
      ],
      [
        "▁year",
        -8.980396270751953
      ],
      [
        "▁വി",
        -8.981803894042969
      ],
      [
        "▁রয়েছে",
        -8.984277725219727
      ],
      [
        "▁പറഞ്ഞു",
        -8.985816955566406
      ],
      [
        "▁B",
        -8.986401557922363
      ],
      [
        "▁कम",
        -8.986990928649902
      ],
      [
        "ன்",
        -8.988638877868652
      ],
      [
        "ून",
        -8.989312171936035
      ],
      [
        "▁against",
        -8.989801406860352
      ],
      [
        "ി",
        -8.99067497253418
      ],
      [
        "ो",
        -8.992166519165039
      ],
      [
        "న",
        -8.992657661437988
      ],
      [
        "▁ਹੋਏ",
        -8.996606826782227
      ],
      [
        "▁time",
        -8.997068405151367
      ],
      [
        "▁other",
        -8.998027801513672
      ],
      [
        "▁K",
        -8.998100280761719
      ],
      [
        "▁మీ",
        -8.99852180480957
      ],
      [
        "నే",
        -8.998531341552734
      ],
      [
        "ః",
        -8.999613761901855
      ],
      [
        "ରୁ",
        -9.003201484680176
      ],
      [
        "▁सकते",
        -9.00357723236084
      ],
      [
        "▁ਬਾਅਦ",
        -9.003890991210938
      ],
      [
        "▁क्या",
        -9.005626678466797
      ],
      [
        "▁তাদের",
        -9.007164001464844
      ],
      [
        "▁నుంచి",
        -9.01276969909668
      ],
      [
        "▁ਮੌਕੇ",
        -9.012776374816895
      ],
      [
        "▁दौरान",
        -9.013446807861328
      ],
      [
        "▁Indian",
        -9.014103889465332
      ],
      [
        "ात",
        -9.015814781188965
      ],
      [
        "▁फिल्म",
        -9.01583480834961
      ],
      [
        "▁ਦੱਸਿਆ",
        -9.016768455505371
      ],
      [
        "▁सबसे",
        -9.017166137695312
      ],
      [
        "ਕ",
        -9.020312309265137
      ],
      [
        "▁एवं",
        -9.020392417907715
      ],
      [
        "▁रुपये",
        -9.021488189697266
      ],
      [
        "▁[",
        -9.024091720581055
      ],
      [
        "ారు",
        -9.0250825881958
      ],
      [
        "▁when",
        -9.027094841003418
      ],
      [
        "ল",
        -9.028703689575195
      ],
      [
        "ाच्या",
        -9.029040336608887
      ],
      [
        "▁ପାଇଁ",
        -9.02919864654541
      ],
      [
        "▁मैं",
        -9.030494689941406
      ],
      [
        "▁अ",
        -9.030739784240723
      ],
      [
        "রা",
        -9.03076171875
      ],
      [
        "▁पार्टी",
        -9.031428337097168
      ],
      [
        "▁वाली",
        -9.031782150268555
      ],
      [
        "▁ൽ",
        -9.032634735107422
      ],
      [
        "▁ਰਿਹਾ",
        -9.033169746398926
      ],
      [
        "ા",
        -9.03465461730957
      ],
      [
        "▁થાય",
        -9.035293579101562
      ],
      [
        "ली",
        -9.036073684692383
      ],
      [
        "ಗಳಿಗೆ",
        -9.037500381469727
      ],
      [
        "▁26",
        -9.037585258483887
      ],
      [
        "▁Minister",
        -9.039525032043457
      ],
      [
        "▁તેના",
        -9.039751052856445
      ],
      [
        "களை",
        -9.044200897216797
      ],
      [
        "er",
        -9.044540405273438
      ],
      [
        "म",
        -9.047292709350586
      ],
      [
        "▁there",
        -9.048226356506348
      ],
      [
        "்",
        -9.049702644348145
      ],
      [
        "▁बीच",
        -9.050262451171875
      ],
      [
        "▁ছিল",
        -9.052827835083008
      ],
      [
        "▁ਬਹੁਤ",
        -9.0540771484375
      ],
      [
        "▁लाख",
        -9.054810523986816
      ],
      [
        "ന്",
        -9.055057525634766
      ],
      [
        "▁first",
        -9.055091857910156
      ],
      [
        "ಿಗೆ",
        -9.058516502380371
      ],
      [
        "▁D",
        -9.059106826782227
      ],
      [
        "▁ਵਿਖੇ",
        -9.059268951416016
      ],
      [
        "▁years",
        -9.05949592590332
      ],
      [
        "▁আমার",
        -9.061092376708984
      ],
      [
        "▁সব",
        -9.061901092529297
      ],
      [
        "▁केला",
        -9.06358528137207
      ],
      [
        "▁t",
        -9.064196586608887
      ],
      [
        "യെ",
        -9.064908981323242
      ],
      [
        "മാണ്",
        -9.067234992980957
      ],
      [
        "▁मुंबई",
        -9.070316314697266
      ],
      [
        "▁क्षेत्र",
        -9.071524620056152
      ],
      [
        "ते",
        -9.07262134552002
      ],
      [
        "▁पास",
        -9.073637008666992
      ],
      [
        "▁உள்ள",
        -9.074002265930176
      ],
      [
        "▁28",
        -9.07419490814209
      ],
      [
        "▁કોઈ",
        -9.07654857635498
      ],
      [
        "▁100",
        -9.077108383178711
      ],
      [
        "▁चाहिए",
        -9.077459335327148
      ],
      [
        "್",
        -9.08050537109375
      ],
      [
        "யை",
        -9.08364200592041
      ],
      [
        "▁ನಂತರ",
        -9.085693359375
      ],
      [
        "த்தில்",
        -9.087020874023438
      ],
      [
        "▁ತಮ್ಮ",
        -9.087263107299805
      ],
      [
        "▁2020",
        -9.090417861938477
      ],
      [
        "▁ਵਾਲੇ",
        -9.090518951416016
      ],
      [
        "లను",
        -9.090903282165527
      ],
      [
        "▁state",
        -9.092493057250977
      ],
      [
        "▁27",
        -9.092844009399414
      ],
      [
        "▁બે",
        -9.093571662902832
      ],
      [
        "▁ਵੱਖ",
        -9.096296310424805
      ],
      [
        "▁उसके",
        -9.096511840820312
      ],
      [
        "▁them",
        -9.097576141357422
      ],
      [
        "▁वो",
        -9.09780502319336
      ],
      [
        "▁ਪ੍ਰਧਾਨ",
        -9.098731994628906
      ],
      [
        "ಾ",
        -9.099513053894043
      ],
      [
        "▁तथा",
        -9.099780082702637
      ],
      [
        "▁তবে",
        -9.100502014160156
      ],
      [
        "▁నుండి",
        -9.10139274597168
      ],
      [
        "▁उनकी",
        -9.10229206085205
      ],
      [
        "▁നിന്ന്",
        -9.107394218444824
      ],
      [
        "▁അത്",
        -9.10778522491455
      ],
      [
        "▁2015",
        -9.107888221740723
      ],
      [
        "யில்",
        -9.10850715637207
      ],
      [
        "ാ",
        -9.110031127929688
      ],
      [
        "▁તેઓ",
        -9.115501403808594
      ],
      [
        "▁शुरू",
        -9.115710258483887
      ],
      [
        "▁আছে",
        -9.116280555725098
      ],
      [
        "▁per",
        -9.116689682006836
      ],
      [
        "ં",
        -9.117009162902832
      ],
      [
        "▁मात्र",
        -9.119136810302734
      ],
      [
        "▁आता",
        -9.119279861450195
      ],
      [
        "▁ఉన్న",
        -9.119645118713379
      ],
      [
        "▁News",
        -9.12112808227539
      ],
      [
        "▁मामले",
        -9.121787071228027
      ],
      [
        "ాన్ని",
        -9.125408172607422
      ],
      [
        "▁2014",
        -9.126157760620117
      ],
      [
        "▁उसे",
        -9.126204490661621
      ],
      [
        "▁കെ",
        -9.126952171325684
      ],
      [
        "▁यहां",
        -9.127571105957031
      ],
      [
        "▁വ",
        -9.128068923950195
      ],
      [
        "▁new",
        -9.128713607788086
      ],
      [
        "▁29",
        -9.128826141357422
      ],
      [
        "▁अन्य",
        -9.128890037536621
      ],
      [
        "▁]",
        -9.129266738891602
      ],
      [
        "സ്",
        -9.13070297241211
      ],
      [
        "▁ഇ",
        -9.132532119750977
      ],
      [
        "▁उस",
        -9.132917404174805
      ],
      [
        "കൾ",
        -9.133617401123047
      ],
      [
        "▁no",
        -9.134465217590332
      ],
      [
        "▁दोनों",
        -9.135830879211426
      ],
      [
        "▁मंत्री",
        -9.138080596923828
      ],
      [
        "▁मुख्यमंत्री",
        -9.139525413513184
      ],
      [
        "▁We",
        -9.141305923461914
      ],
      [
        "▁কি",
        -9.141775131225586
      ],
      [
        "▁ಅ",
        -9.14278507232666
      ],
      [
        "ੀਆਂ",
        -9.142889022827148
      ],
      [
        "▁ના",
        -9.143879890441895
      ],
      [
        "▁ಮೂಲಕ",
        -9.144760131835938
      ],
      [
        "▁ஆனால்",
        -9.144789695739746
      ],
      [
        "▁अगर",
        -9.148710250854492
      ],
      [
        "▁ऐसे",
        -9.152125358581543
      ],
      [
        "તા",
        -9.152194023132324
      ],
      [
        "▁તમારા",
        -9.15316104888916
      ],
      [
        "▁ਹੋਣ",
        -9.155989646911621
      ],
      [
        "ਿਆਂ",
        -9.156998634338379
      ],
      [
        "▁ਪਿੰਡ",
        -9.158345222473145
      ],
      [
        "▁ਲੋਕਾਂ",
        -9.159334182739258
      ],
      [
        "ര്",
        -9.159917831420898
      ],
      [
        "▁January",
        -9.160503387451172
      ],
      [
        "▁સુધી",
        -9.160558700561523
      ],
      [
        "▁કરો",
        -9.16176700592041
      ],
      [
        "▁മ",
        -9.162555694580078
      ],
      [
        "ર",
        -9.162765502929688
      ],
      [
        "ೆ",
        -9.164198875427246
      ],
      [
        "▁தான்",
        -9.165266990661621
      ],
      [
        "▁করার",
        -9.165582656860352
      ],
      [
        "▁into",
        -9.166278839111328
      ],
      [
        "▁महिला",
        -9.167155265808105
      ],
      [
        "th",
        -9.16794204711914
      ],
      [
        "টা",
        -9.16865348815918
      ],
      [
        "▁ਮੰਤਰੀ",
        -9.169196128845215
      ],
      [
        "▁सर्व",
        -9.170376777648926
      ],
      [
        "i",
        -9.170628547668457
      ],
      [
        "▁त्यामुळे",
        -9.171514511108398
      ],
      [
        "ো",
        -9.172443389892578
      ],
      [
        "▁Singh",
        -9.172632217407227
      ],
      [
        "▁दे",
        -9.172633171081543
      ],
      [
        "▁માં",
        -9.173893928527832
      ],
      [
        "▁പ",
        -9.173908233642578
      ],
      [
        "ಗಳಲ್ಲಿ",
        -9.1739501953125
      ],
      [
        "ाची",
        -9.179926872253418
      ],
      [
        "▁हजार",
        -9.180699348449707
      ],
      [
        ";",
        -9.182738304138184
      ],
      [
        "▁இது",
        -9.183238983154297
      ],
      [
        "▁under",
        -9.183761596679688
      ],
      [
        "▁ਦੌਰਾਨ",
        -9.185074806213379
      ],
      [
        "▁वर्ष",
        -9.185929298400879
      ],
      [
        "▁শুরু",
        -9.18614673614502
      ],
      [
        "▁भाजपा",
        -9.186792373657227
      ],
      [
        "ू",
        -9.187216758728027
      ],
      [
        "▁T",
        -9.187854766845703
      ],
      [
        "▁কিছু",
        -9.18795108795166
      ],
      [
        "▁ওই",
        -9.19071102142334
      ],
      [
        "ങ്ങൾ",
        -9.190851211547852
      ],
      [
        "▁సినిమా",
        -9.191452026367188
      ],
      [
        "▁police",
        -9.191537857055664
      ],
      [
        "ઃ",
        -9.19174861907959
      ],
      [
        "▁అయితే",
        -9.191973686218262
      ],
      [
        "▁হচ্ছে",
        -9.19317626953125
      ],
      [
        "▁ਤੱਕ",
        -9.193284034729004
      ],
      [
        "▁आपको",
        -9.194128036499023
      ],
      [
        "▁BJP",
        -9.195536613464355
      ],
      [
        "▁শেষ",
        -9.197650909423828
      ],
      [
        "▁खिलाफ",
        -9.197993278503418
      ],
      [
        "▁ਕਾਰਨ",
        -9.198186874389648
      ],
      [
        "ಸ್",
        -9.198775291442871
      ],
      [
        "ல்",
        -9.19926643371582
      ],
      [
        "யின்",
        -9.19961929321289
      ],
      [
        "al",
        -9.199816703796387
      ],
      [
        "▁करें",
        -9.200793266296387
      ],
      [
        "▁তাঁর",
        -9.201628684997559
      ],
      [
        "▁करता",
        -9.20332145690918
      ],
      [
        "▁अध्यक्ष",
        -9.204501152038574
      ],
      [
        "▁ਕੋਈ",
        -9.205079078674316
      ],
      [
        "▁বাংলাদেশ",
        -9.207113265991211
      ],
      [
        "▁જ્યારે",
        -9.208707809448242
      ],
      [
        "▁आले",
        -9.209981918334961
      ],
      [
        "▁થઈ",
        -9.210591316223145
      ],
      [
        "ाचा",
        -9.21259880065918
      ],
      [
        "தான்",
        -9.21304702758789
      ],
      [
        "▁like",
        -9.21316146850586
      ],
      [
        "▁अनेक",
        -9.215375900268555
      ],
      [
        "▁—",
        -9.216282844543457
      ],
      [
        "ले",
        -9.219491958618164
      ],
      [
        "ത്തിന്റെ",
        -9.21983528137207
      ],
      [
        "ਲ",
        -9.220154762268066
      ],
      [
        "▁देने",
        -9.221424102783203
      ],
      [
        "▁त्या",
        -9.222212791442871
      ],
      [
        "▁only",
        -9.223174095153809
      ],
      [
        "▁she",
        -9.224254608154297
      ],
      [
        "..",
        -9.225021362304688
      ],
      [
        "▁last",
        -9.22520637512207
      ],
      [
        "▁কোনো",
        -9.226832389831543
      ],
      [
        "▁ਦਿੱਤੀ",
        -9.22833251953125
      ],
      [
        "▁করেছে",
        -9.229307174682617
      ],
      [
        "▁பல",
        -9.229525566101074
      ],
      [
        "ाचे",
        -9.23082160949707
      ],
      [
        "▁ఏ",
        -9.231568336486816
      ],
      [
        "▁ਸਕਦਾ",
        -9.232063293457031
      ],
      [
        "▁ज्यादा",
        -9.232994079589844
      ],
      [
        "▁पूर्व",
        -9.233872413635254
      ],
      [
        "્સ",
        -9.235807418823242
      ],
      [
        "▁ਕੌਰ",
        -9.236522674560547
      ],
      [
        "▁ले",
        -9.236528396606445
      ],
      [
        "▁विकास",
        -9.237587928771973
      ],
      [
        "▁40",
        -9.238182067871094
      ],
      [
        "ുകൾ",
        -9.242454528808594
      ],
      [
        "▁সংবাদ",
        -9.242838859558105
      ],
      [
        "ક",
        -9.243547439575195
      ],
      [
        "▁কাজ",
        -9.247212409973145
      ],
      [
        "▁টাকা",
        -9.247223854064941
      ],
      [
        "▁ന",
        -9.247411727905273
      ],
      [
        "▁ਰਹੀ",
        -9.248299598693848
      ],
      [
        "▁Home",
        -9.249536514282227
      ],
      [
        "▁ਅੱਜ",
        -9.251450538635254
      ],
      [
        "▁তারা",
        -9.252326011657715
      ],
      [
        "ానికి",
        -9.252727508544922
      ],
      [
        "▁అది",
        -9.257308959960938
      ],
      [
        "▁जी",
        -9.257962226867676
      ],
      [
        "–",
        -9.258037567138672
      ],
      [
        "▁so",
        -9.258519172668457
      ],
      [
        "▁ਕੁਝ",
        -9.25996208190918
      ],
      [
        "▁बारे",
        -9.261180877685547
      ],
      [
        "▁ਵਲੋਂ",
        -9.261338233947754
      ],
      [
        "▁ਕਰਕੇ",
        -9.261764526367188
      ],
      [
        "▁ఆయన",
        -9.262932777404785
      ],
      [
        "ित",
        -9.263392448425293
      ],
      [
        "▁দিন",
        -9.263874053955078
      ],
      [
        "▁म्हणून",
        -9.264169692993164
      ],
      [
        "▁আমাদের",
        -9.267592430114746
      ],
      [
        "▁എം",
        -9.268905639648438
      ],
      [
        "▁31",
        -9.269675254821777
      ],
      [
        "▁পুলিশ",
        -9.27254867553711
      ],
      [
        "▁than",
        -9.273316383361816
      ],
      [
        "▁ఓ",
        -9.276293754577637
      ],
      [
        "ே",
        -9.276596069335938
      ],
      [
        "▁being",
        -9.277119636535645
      ],
      [
        "▁ਮੁੱਖ",
        -9.279523849487305
      ],
      [
        "▁নয়",
        -9.282028198242188
      ],
      [
        "▁ఉంటుంది",
        -9.282598495483398
      ],
      [
        "ଙ୍କ",
        -9.28394889831543
      ],
      [
        "ું",
        -9.285161018371582
      ],
      [
        "▁कुमार",
        -9.285576820373535
      ],
      [
        "▁ਤੌਰ",
        -9.285836219787598
      ],
      [
        "▁લોકો",
        -9.288246154785156
      ],
      [
        "▁कंपनी",
        -9.2883939743042
      ],
      [
        "్",
        -9.289298057556152
      ],
      [
        "▁अपना",
        -9.289374351501465
      ],
      [
        "▁ਕੰਮ",
        -9.290262222290039
      ],
      [
        "▁बंद",
        -9.291860580444336
      ],
      [
        "▁ਲੈ",
        -9.292037963867188
      ],
      [
        "ಯಲ್ಲಿ",
        -9.292145729064941
      ],
      [
        "▁நான்",
        -9.292218208312988
      ],
      [
        "▁चार",
        -9.295113563537598
      ],
      [
        "▁ਸਾਲ",
        -9.29532527923584
      ],
      [
        "ിലെ",
        -9.296992301940918
      ],
      [
        "▁എസ്",
        -9.297032356262207
      ],
      [
        "▁পারে",
        -9.298895835876465
      ],
      [
        "▁करोड़",
        -9.298911094665527
      ],
      [
        "▁તરીકે",
        -9.299407005310059
      ],
      [
        "த்தை",
        -9.299968719482422
      ],
      [
        "▁जाते",
        -9.300747871398926
      ],
      [
        "▁do",
        -9.30079460144043
      ],
      [
        "ോ",
        -9.302752494812012
      ],
      [
        "ਤ",
        -9.302825927734375
      ],
      [
        "▁जारी",
        -9.305461883544922
      ],
      [
        "▁इससे",
        -9.308393478393555
      ],
      [
        "▁ഇത്",
        -9.308808326721191
      ],
      [
        "ব",
        -9.30911636352539
      ],
      [
        "ाने",
        -9.310062408447266
      ],
      [
        "▁আমরা",
        -9.313426971435547
      ],
      [
        "▁Share",
        -9.314644813537598
      ],
      [
        "▁તેમના",
        -9.315779685974121
      ],
      [
        "▁ਹਰ",
        -9.31623649597168
      ],
      [
        "▁ऐसा",
        -9.317434310913086
      ],
      [
        "▁ਸਾਹਿਬ",
        -9.318099021911621
      ],
      [
        "▁विभाग",
        -9.318795204162598
      ],
      [
        "es",
        -9.31895637512207
      ],
      [
        "▁Congress",
        -9.319043159484863
      ],
      [
        "ਣ",
        -9.31922721862793
      ],
      [
        "▁এখন",
        -9.320958137512207
      ],
      [
        "▁અ",
        -9.324718475341797
      ],
      [
        "ਦੇ",
        -9.325343132019043
      ],
      [
        "▁ਕਰੋ",
        -9.326870918273926
      ],
      [
        "▁असून",
        -9.328230857849121
      ],
      [
        "▁ਸਕੂਲ",
        -9.328551292419434
      ],
      [
        "▁ಹೆಚ್ಚು",
        -9.329358100891113
      ],
      [
        "▁ਕਿਸੇ",
        -9.32936954498291
      ],
      [
        "ियों",
        -9.331339836120605
      ],
      [
        "▁किए",
        -9.331618309020996
      ],
      [
        "▁some",
        -9.332618713378906
      ],
      [
        "▁आई",
        -9.333076477050781
      ],
      [
        "લ",
        -9.333091735839844
      ],
      [
        "▁जाएगा",
        -9.333163261413574
      ],
      [
        "▁বিভিন্ন",
        -9.333524703979492
      ],
      [
        "▁নেই",
        -9.333658218383789
      ],
      [
        "ਸ",
        -9.333781242370605
      ],
      [
        "▁తో",
        -9.334270477294922
      ],
      [
        "▁చేశారు",
        -9.335626602172852
      ],
      [
        "▁July",
        -9.336390495300293
      ],
      [
        "▁ત્યારે",
        -9.336560249328613
      ],
      [
        "▁This",
        -9.337671279907227
      ],
      [
        "▁તેને",
        -9.337803840637207
      ],
      [
        "▁आपण",
        -9.338249206542969
      ],
      [
        "▁ସେ",
        -9.338639259338379
      ],
      [
        "ઓ",
        -9.341180801391602
      ],
      [
        "ದಿಂದ",
        -9.34168529510498
      ],
      [
        "▁আগে",
        -9.34255313873291
      ],
      [
        "▁मध्ये",
        -9.343247413635254
      ],
      [
        "▁করেছেন",
        -9.343422889709473
      ],
      [
        "▁দুই",
        -9.345383644104004
      ],
      [
        "▁ਬਾਰੇ",
        -9.346535682678223
      ],
      [
        "▁him",
        -9.346587181091309
      ],
      [
        "স",
        -9.347373962402344
      ],
      [
        "▁New",
        -9.348306655883789
      ],
      [
        "ਂ",
        -9.34898567199707
      ],
      [
        "▁ਲੋਕ",
        -9.350433349609375
      ],
      [
        "▁while",
        -9.35080623626709
      ],
      [
        "▁ओर",
        -9.352606773376465
      ],
      [
        "▁वहीं",
        -9.35479736328125
      ],
      [
        "▁»",
        -9.355399131774902
      ],
      [
        "▁ਸ੍ਰੀ",
        -9.356243133544922
      ],
      [
        "ி",
        -9.357955932617188
      ],
      [
        "ால்",
        -9.359122276306152
      ],
      [
        "▁ಎಂಬ",
        -9.362649917602539
      ],
      [
        "▁ತನ್ನ",
        -9.363372802734375
      ],
      [
        "▁our",
        -9.363761901855469
      ],
      [
        "▁शामिल",
        -9.364583969116211
      ],
      [
        "▁একটা",
        -9.364640235900879
      ],
      [
        "▁ઉપયોગ",
        -9.365087509155273
      ],
      [
        "▁ਸ",
        -9.365470886230469
      ],
      [
        "ଙ୍କୁ",
        -9.365537643432617
      ],
      [
        "ూ",
        -9.365898132324219
      ],
      [
        "▁August",
        -9.365947723388672
      ],
      [
        "▁ਜਾਂ",
        -9.366568565368652
      ],
      [
        "▁करून",
        -9.366920471191406
      ],
      [
        "▁R",
        -9.367291450500488
      ],
      [
        "▁काफी",
        -9.369552612304688
      ],
      [
        "▁নতুন",
        -9.369694709777832
      ],
      [
        "▁ಯಾವುದೇ",
        -9.371537208557129
      ],
      [
        "▁‘‘",
        -9.37175178527832
      ],
      [
        "▁ਦੋ",
        -9.372109413146973
      ],
      [
        "▁any",
        -9.374926567077637
      ],
      [
        "▁আৰু",
        -9.376068115234375
      ],
      [
        "ಿದ್ದಾರೆ",
        -9.378971099853516
      ],
      [
        "▁மேலும்",
        -9.380603790283203
      ],
      [
        "▁उत्तर",
        -9.382197380065918
      ],
      [
        "▁आली",
        -9.382612228393555
      ],
      [
        "ாக",
        -9.383545875549316
      ],
      [
        "▁आरोप",
        -9.384276390075684
      ],
      [
        "▁দেখা",
        -9.384312629699707
      ],
      [
        "ர்",
        -9.384684562683105
      ],
      [
        "▁কাছে",
        -9.384882926940918
      ],
      [
        "नी",
        -9.385891914367676
      ],
      [
        "▁ਪੁਲਿਸ",
        -9.386126518249512
      ],
      [
        "▁मुख्य",
        -9.38684368133545
      ],
      [
        "▁মনে",
        -9.388422966003418
      ],
      [
        "▁முதல்",
        -9.388444900512695
      ],
      [
        "മായി",
        -9.389713287353516
      ],
      [
        "▁जानकारी",
        -9.390451431274414
      ],
      [
        "▁કામ",
        -9.390761375427246
      ],
      [
        "▁&",
        -9.394352912902832
      ],
      [
        "▁இருந்து",
        -9.395013809204102
      ],
      [
        "▁ਸਭ",
        -9.398138999938965
      ],
      [
        "ంగా",
        -9.39861011505127
      ],
      [
        "▁અન્ય",
        -9.399676322937012
      ],
      [
        "▁ਸਾਰੇ",
        -9.400300025939941
      ],
      [
        "▁ਕੀਤੇ",
        -9.40140438079834
      ],
      [
        "▁now",
        -9.403556823730469
      ],
      [
        "▁should",
        -9.404014587402344
      ],
      [
        "▁ना",
        -9.404326438903809
      ],
      [
        "▁പുതിയ",
        -9.404417991638184
      ],
      [
        "▁ਜੀ",
        -9.404546737670898
      ],
      [
        "▁if",
        -9.40871810913086
      ],
      [
        "ాడు",
        -9.410323143005371
      ],
      [
        "▁party",
        -9.411284446716309
      ],
      [
        "▁ద్వారా",
        -9.412270545959473
      ],
      [
        "▁શકો",
        -9.412399291992188
      ],
      [
        "களில்",
        -9.41273021697998
      ],
      [
        "ார்",
        -9.413358688354492
      ],
      [
        "ായി",
        -9.413427352905273
      ],
      [
        "▁कमी",
        -9.41562271118164
      ],
      [
        "▁पाकिस्तान",
        -9.415726661682129
      ],
      [
        "▁অনেক",
        -9.416441917419434
      ],
      [
        "ाला",
        -9.416573524475098
      ],
      [
        "ா",
        -9.417216300964355
      ],
      [
        "▁ਦਿਨ",
        -9.41744327545166
      ],
      [
        "▁त्यांनी",
        -9.418366432189941
      ],
      [
        "ई",
        -9.418944358825684
      ],
      [
        "▁ਕਰਦੇ",
        -9.420134544372559
      ],
      [
        "▁అన్ని",
        -9.420150756835938
      ],
      [
        "▁अधिकारी",
        -9.421009063720703
      ],
      [
        "▁नई",
        -9.423948287963867
      ],
      [
        "▁such",
        -9.424602508544922
      ],
      [
        "▁June",
        -9.426088333129883
      ],
      [
        "▁झाले",
        -9.426390647888184
      ],
      [
        "▁three",
        -9.427008628845215
      ],
      [
        "▁বছর",
        -9.428770065307617
      ],
      [
        "▁March",
        -9.429142951965332
      ],
      [
        "▁നിന്നും",
        -9.429147720336914
      ],
      [
        "ೂ",
        -9.429411888122559
      ],
      [
        "▁get",
        -9.42989444732666
      ],
      [
        "▁February",
        -9.430553436279297
      ],
      [
        "▁मी",
        -9.432448387145996
      ],
      [
        "▁નહીં",
        -9.433780670166016
      ],
      [
        "▁लगा",
        -9.433894157409668
      ],
      [
        "▁December",
        -9.434364318847656
      ],
      [
        "▁వారు",
        -9.43455696105957
      ],
      [
        "▁आपल्या",
        -9.435184478759766
      ],
      [
        "▁2013",
        -9.437067031860352
      ],
      [
        "▁By",
        -9.4373140335083
      ],
      [
        "▁১",
        -9.43774700164795
      ],
      [
        "▁মন্তব্য",
        -9.439111709594727
      ],
      [
        "▁made",
        -9.439236640930176
      ],
      [
        "▁ਆ",
        -9.440608024597168
      ],
      [
        "▁यांच्या",
        -9.440675735473633
      ],
      [
        "▁জানান",
        -9.441208839416504
      ],
      [
        "▁during",
        -9.442176818847656
      ],
      [
        "▁सामने",
        -9.442342758178711
      ],
      [
        "ಿದೆ",
        -9.442357063293457
      ],
      [
        "▁రెండు",
        -9.44271183013916
      ],
      [
        "ത്തെ",
        -9.44369125366211
      ],
      [
        "▁झाली",
        -9.444182395935059
      ],
      [
        "▁ਸਮੇਂ",
        -9.446212768554688
      ],
      [
        "▁जैसे",
        -9.446374893188477
      ],
      [
        "▁બાદ",
        -9.446514129638672
      ],
      [
        "▁સમય",
        -9.44759464263916
      ],
      [
        "▁But",
        -9.447640419006348
      ],
      [
        "▁#",
        -9.448433876037598
      ],
      [
        "▁లేదు",
        -9.448596954345703
      ],
      [
        "▁জন",
        -9.449023246765137
      ],
      [
        "▁କରି",
        -9.450762748718262
      ],
      [
        "வும்",
        -9.451508522033691
      ],
      [
        "▁તેની",
        -9.452031135559082
      ],
      [
        "▁গত",
        -9.452611923217773
      ],
      [
        "▁says",
        -9.45352840423584
      ],
      [
        "ातील",
        -9.454025268554688
      ],
      [
        "▁किंवा",
        -9.454710006713867
      ],
      [
        "▁अशी",
        -9.45490550994873
      ],
      [
        "▁আজ",
        -9.455618858337402
      ],
      [
        "▁ਪਹਿਲਾਂ",
        -9.457891464233398
      ],
      [
        "▁जीवन",
        -9.45896053314209
      ],
      [
        "ത",
        -9.459874153137207
      ],
      [
        "▁Jan",
        -9.460794448852539
      ],
      [
        "▁ଏକ",
        -9.461203575134277
      ],
      [
        "▁சில",
        -9.46364688873291
      ],
      [
        "▁তাই",
        -9.46382999420166
      ],
      [
        "▁ർ",
        -9.464285850524902
      ],
      [
        "▁എന്ന്",
        -9.465153694152832
      ],
      [
        "▁होगी",
        -9.465242385864258
      ],
      [
        "ವಾಗಿ",
        -9.465371131896973
      ],
      [
        "▁इसी",
        -9.465706825256348
      ],
      [
        "▁ਜਾਣ",
        -9.46635627746582
      ],
      [
        "▁निर्माण",
        -9.466371536254883
      ],
      [
        "களின்",
        -9.466551780700684
      ],
      [
        "▁கொண்டு",
        -9.468223571777344
      ],
      [
        "▁Posted",
        -9.469849586486816
      ],
      [
        "▁October",
        -9.4705810546875
      ],
      [
        "▁जाती",
        -9.472042083740234
      ],
      [
        "ನ್",
        -9.472609519958496
      ],
      [
        "▁पिछले",
        -9.472879409790039
      ],
      [
        "ರ್",
        -9.47315502166748
      ],
      [
        "ിന്",
        -9.473186492919922
      ],
      [
        "▁જોઈએ",
        -9.473600387573242
      ],
      [
        "▁सुरू",
        -9.474279403686523
      ],
      [
        "िंग",
        -9.475387573242188
      ],
      [
        "▁April",
        -9.475666046142578
      ],
      [
        "▁केंद्र",
        -9.475780487060547
      ],
      [
        "▁செய்து",
        -9.476036071777344
      ],
      [
        "▁ਵਾਰ",
        -9.476225852966309
      ],
      [
        "▁ബി",
        -9.476577758789062
      ],
      [
        "ിരുന്നു",
        -9.476795196533203
      ],
      [
        "ਮ",
        -9.477008819580078
      ],
      [
        "▁दोन",
        -9.477204322814941
      ],
      [
        "ਃ",
        -9.4774169921875
      ],
      [
        "▁રહી",
        -9.479405403137207
      ],
      [
        "ర్",
        -9.480143547058105
      ],
      [
        "সহ",
        -9.481002807617188
      ],
      [
        "—",
        -9.481008529663086
      ],
      [
        "▁அரசு",
        -9.481561660766602
      ],
      [
        "ுக்கு",
        -9.48349380493164
      ],
      [
        "▁>",
        -9.484631538391113
      ],
      [
        "மாக",
        -9.485005378723145
      ],
      [
        "ുള്ള",
        -9.485946655273438
      ],
      [
        "य",
        -9.486275672912598
      ],
      [
        "▁इसे",
        -9.486530303955078
      ],
      [
        "ती",
        -9.487786293029785
      ],
      [
        "▁country",
        -9.488758087158203
      ],
      [
        "▁হতে",
        -9.48957347869873
      ],
      [
        "▁ਤੁਹਾਨੂੰ",
        -9.489975929260254
      ],
      [
        "ುವ",
        -9.489995956420898
      ],
      [
        "▁विचार",
        -9.491938591003418
      ],
      [
        "▁માત્ર",
        -9.492157936096191
      ],
      [
        "▁സ",
        -9.493906021118164
      ],
      [
        "യിലെ",
        -9.4947509765625
      ],
      [
        "▁where",
        -9.49622917175293
      ],
      [
        "▁शहर",
        -9.49679183959961
      ],
      [
        "▁বড়",
        -9.49761962890625
      ],
      [
        "▁G",
        -9.49801254272461
      ],
      [
        "▁read",
        -9.49836540222168
      ],
      [
        "▁ಎಲ್ಲಾ",
        -9.50011920928955
      ],
      [
        "▁સૌથી",
        -9.500286102294922
      ],
      [
        "▁November",
        -9.50198745727539
      ],
      [
        "▁N",
        -9.502141952514648
      ],
      [
        "ங்கள்",
        -9.503193855285645
      ],
      [
        "వ",
        -9.503631591796875
      ],
      [
        "▁அது",
        -9.504348754882812
      ],
      [
        "▁বন্ধ",
        -9.504409790039062
      ],
      [
        "▁கடந்த",
        -9.504469871520996
      ],
      [
        "▁सकती",
        -9.504709243774414
      ],
      [
        "▁योजना",
        -9.506420135498047
      ],
      [
        "साठी",
        -9.50903606414795
      ],
      [
        "▁অভিযোগ",
        -9.509666442871094
      ],
      [
        "▁ਕਈ",
        -9.51020622253418
      ],
      [
        "▁ਹੋਈ",
        -9.510420799255371
      ],
      [
        "▁అ",
        -9.511387825012207
      ],
      [
        "▁వారి",
        -9.511406898498535
      ],
      [
        "▁गांव",
        -9.511844635009766
      ],
      [
        "▁કારણ",
        -9.511858940124512
      ],
      [
        "▁झाला",
        -9.512216567993164
      ],
      [
        "▁these",
        -9.51244831085205
      ],
      [
        "▁work",
        -9.512451171875
      ],
      [
        "▁ਸ਼ੁਰੂ",
        -9.512795448303223
      ],
      [
        "ன",
        -9.512962341308594
      ],
      [
        "▁E",
        -9.514342308044434
      ],
      [
        "▁তো",
        -9.514796257019043
      ],
      [
        "▁पूरी",
        -9.51505184173584
      ],
      [
        "\"",
        -9.51533317565918
      ],
      [
        "▁=",
        -9.517203330993652
      ],
      [
        "▁প্রথম",
        -9.517452239990234
      ],
      [
        "▁श्री",
        -9.518280982971191
      ],
      [
        "▁ਪਾਰਟੀ",
        -9.51880931854248
      ],
      [
        "▁ਜਦੋਂ",
        -9.520405769348145
      ],
      [
        "▁இன்று",
        -9.52053451538086
      ],
      [
        "ম",
        -9.520665168762207
      ],
      [
        "▁could",
        -9.521783828735352
      ],
      [
        "িত",
        -9.521873474121094
      ],
      [
        "▁अनुसार",
        -9.522173881530762
      ],
      [
        "▁കഴിഞ്ഞ",
        -9.52226448059082
      ],
      [
        "▁राष्ट्रीय",
        -9.524079322814941
      ],
      [
        "▁২০১৯",
        -9.52413272857666
      ],
      [
        "▁आने",
        -9.524417877197266
      ],
      [
        "▁என்பது",
        -9.524818420410156
      ],
      [
        "ನಲ್ಲಿ",
        -9.525432586669922
      ],
      [
        "▁अभी",
        -9.526222229003906
      ],
      [
        "▁ખૂબ",
        -9.526622772216797
      ],
      [
        "▁एका",
        -9.527379035949707
      ],
      [
        "in",
        -9.528096199035645
      ],
      [
        "▁ടി",
        -9.528676986694336
      ],
      [
        "▁गांधी",
        -9.528889656066895
      ],
      [
        "▁ത",
        -9.53067398071289
      ],
      [
        "▁ನಮ್ಮ",
        -9.531184196472168
      ],
      [
        "▁இருக்கும்",
        -9.532161712646484
      ],
      [
        "▁చేసిన",
        -9.532247543334961
      ],
      [
        "▁হাজার",
        -9.536359786987305
      ],
      [
        "▁State",
        -9.537354469299316
      ],
      [
        "୍",
        -9.538040161132812
      ],
      [
        "▁ਜੇ",
        -9.538207054138184
      ],
      [
        "▁take",
        -9.538466453552246
      ],
      [
        "▁बस",
        -9.53869915008545
      ],
      [
        "▁घटना",
        -9.539604187011719
      ],
      [
        "▁ചെയ്തു",
        -9.543015480041504
      ],
      [
        "മായ",
        -9.544543266296387
      ],
      [
        "▁day",
        -9.544673919677734
      ],
      [
        "ਜ਼",
        -9.544913291931152
      ],
      [
        "▁ఆమె",
        -9.547165870666504
      ],
      [
        "▁September",
        -9.547200202941895
      ],
      [
        "ాయి",
        -9.548664093017578
      ],
      [
        "▁ഏറ്റവും",
        -9.549015045166016
      ],
      [
        "ುತ್ತದೆ",
        -9.549715042114258
      ],
      [
        "▁ਪੀ",
        -9.550195693969727
      ],
      [
        "▁US",
        -9.55061149597168
      ],
      [
        "ുന്നു",
        -9.55083179473877
      ],
      [
        "▁എല്ലാ",
        -9.551798820495605
      ],
      [
        "▁மக்கள்",
        -9.55223560333252
      ],
      [
        "▁मे",
        -9.552291870117188
      ],
      [
        "▁ਲਿਆ",
        -9.552812576293945
      ],
      [
        "▁ശേഷം",
        -9.552834510803223
      ],
      [
        "డం",
        -9.552998542785645
      ],
      [
        "ന്റെ",
        -9.55312728881836
      ],
      [
        "▁হিসেবে",
        -9.553248405456543
      ],
      [
        "▁സ്",
        -9.554614067077637
      ],
      [
        "▁ਹੁਣ",
        -9.555383682250977
      ],
      [
        "▁తర్వాత",
        -9.555383682250977
      ],
      [
        "▁तसेच",
        -9.5556058883667
      ],
      [
        "ాలు",
        -9.555737495422363
      ],
      [
        "री",
        -9.555879592895508
      ],
      [
        "▁কোন",
        -9.55640983581543
      ],
      [
        "▁प्रकार",
        -9.556570053100586
      ],
      [
        "▁मिल",
        -9.556788444519043
      ],
      [
        "▁আরও",
        -9.55859088897705
      ],
      [
        "▁দেওয়া",
        -9.559210777282715
      ],
      [
        "▁હવે",
        -9.5600004196167
      ],
      [
        "▁શું",
        -9.560389518737793
      ],
      [
        "▁മാ",
        -9.561074256896973
      ],
      [
        "માંથી",
        -9.561461448669434
      ],
      [
        "ಲ್ಲಿ",
        -9.561594009399414
      ],
      [
        "▁ପରେ",
        -9.561973571777344
      ],
      [
        "▁प्रति",
        -9.565469741821289
      ],
      [
        "નાં",
        -9.565773963928223
      ],
      [
        "▁Comments",
        -9.566214561462402
      ],
      [
        "▁आला",
        -9.567179679870605
      ],
      [
        "▁बड़ी",
        -9.568459510803223
      ],
      [
        "▁+",
        -9.56910514831543
      ],
      [
        "▁ए",
        -9.56973934173584
      ],
      [
        "▁કહ્યું",
        -9.570403099060059
      ],
      [
        "S",
        -9.570856094360352
      ],
      [
        "▁নাম",
        -9.5711669921875
      ],
      [
        "ೇ",
        -9.571202278137207
      ],
      [
        "▁ਆਪਣੀ",
        -9.571274757385254
      ],
      [
        "▁कार्य",
        -9.571714401245117
      ],
      [
        "▁గురించి",
        -9.572839736938477
      ],
      [
        "▁असा",
        -9.574087142944336
      ],
      [
        "▁ਅ",
        -9.574163436889648
      ],
      [
        "▁కాదు",
        -9.5743408203125
      ],
      [
        "▁अलग",
        -9.574530601501465
      ],
      [
        "▁नेता",
        -9.574777603149414
      ],
      [
        "▁crore",
        -9.575189590454102
      ],
      [
        "▁ಮಾಡಿ",
        -9.575661659240723
      ],
      [
        "ਿਆ",
        -9.576851844787598
      ],
      [
        "▁what",
        -9.57788372039795
      ],
      [
        "▁કારણે",
        -9.57890510559082
      ],
      [
        "▁ಹೊಸ",
        -9.57907772064209
      ],
      [
        "▁क्योंकि",
        -9.579402923583984
      ],
      [
        "▁दर्ज",
        -9.579780578613281
      ],
      [
        "▁ഐ",
        -9.58055591583252
      ],
      [
        "ത്തിന്",
        -9.581276893615723
      ],
      [
        "▁बना",
        -9.581380844116211
      ],
      [
        "▁അദ്ദേഹം",
        -9.58176040649414
      ],
      [
        "▁भर",
        -9.583553314208984
      ],
      [
        "▁माहिती",
        -9.583699226379395
      ],
      [
        "▁என்",
        -9.584121704101562
      ],
      [
        "▁വലിയ",
        -9.58530330657959
      ],
      [
        "▁my",
        -9.586261749267578
      ],
      [
        "▁विशेष",
        -9.586932182312012
      ],
      [
        "▁even",
        -9.587108612060547
      ],
      [
        "▁भाग",
        -9.58718490600586
      ],
      [
        "த்தின்",
        -9.587333679199219
      ],
      [
        "▁કરીને",
        -9.591465950012207
      ],
      [
        "▁60",
        -9.59158706665039
      ],
      [
        "▁కు",
        -9.591852188110352
      ],
      [
        "▁मीडिया",
        -9.592044830322266
      ],
      [
        "▁कार्यक्रम",
        -9.592799186706543
      ],
      [
        "▁त्यांना",
        -9.594650268554688
      ],
      [
        "n",
        -9.594785690307617
      ],
      [
        "ન",
        -9.594955444335938
      ],
      [
        "▁here",
        -9.59542179107666
      ],
      [
        "तील",
        -9.59589958190918
      ],
      [
        "▁ମଧ୍ୟ",
        -9.596863746643066
      ],
      [
        "ய",
        -9.59719181060791
      ],
      [
        "▁जबकि",
        -9.597251892089844
      ],
      [
        "▁स",
        -9.597633361816406
      ],
      [
        "യ",
        -9.598093032836914
      ],
      [
        "▁కొన్ని",
        -9.59926700592041
      ],
      [
        "▁त्यांच्या",
        -9.599595069885254
      ],
      [
        "▁ആണ്",
        -9.601104736328125
      ],
      [
        "▁प्रधानमंत्री",
        -9.601715087890625
      ],
      [
        "▁বেশি",
        -9.60197639465332
      ],
      [
        "▁मुझे",
        -9.60231876373291
      ],
      [
        "▁राम",
        -9.602755546569824
      ],
      [
        "▁जांच",
        -9.602909088134766
      ],
      [
        "▁बन",
        -9.60291862487793
      ],
      [
        "ें",
        -9.604235649108887
      ],
      [
        "▁ਜਾਣਕਾਰੀ",
        -9.604259490966797
      ],
      [
        "▁ಕೆಲವು",
        -9.604935646057129
      ],
      [
        "▁Mumbai",
        -9.60653018951416
      ],
      [
        "▁দিকে",
        -9.607809066772461
      ],
      [
        "▁अशा",
        -9.609038352966309
      ],
      [
        "▁કર્યો",
        -9.609731674194336
      ],
      [
        "ਟ",
        -9.612154960632324
      ],
      [
        "▁इसलिए",
        -9.612381935119629
      ],
      [
        "▁இல்லை",
        -9.612635612487793
      ],
      [
        "ांच्या",
        -9.61327838897705
      ],
      [
        "▁ਹੋਇਆ",
        -9.613428115844727
      ],
      [
        "▁उनका",
        -9.613678932189941
      ],
      [
        "ज",
        -9.61402702331543
      ],
      [
        "▁ago",
        -9.614645004272461
      ],
      [
        "▁Feb",
        -9.614688873291016
      ],
      [
        "▁well",
        -9.615800857543945
      ],
      [
        "▁প্রতি",
        -9.616826057434082
      ],
      [
        "▁काय",
        -9.617337226867676
      ],
      [
        "▁आगे",
        -9.61736011505127
      ],
      [
        "▁ਏ",
        -9.617533683776855
      ],
      [
        "▁గా",
        -9.617805480957031
      ],
      [
        "ిన",
        -9.618194580078125
      ],
      [
        "న్",
        -9.618825912475586
      ],
      [
        "▁तब",
        -9.619187355041504
      ],
      [
        "ുന്നത്",
        -9.619317054748535
      ],
      [
        "ില്ല",
        -9.619933128356934
      ],
      [
        "ది",
        -9.619975090026855
      ],
      [
        "▁J",
        -9.620023727416992
      ],
      [
        "▁യ",
        -9.620438575744629
      ],
      [
        "▁बनाने",
        -9.620731353759766
      ],
      [
        "▁থাকে",
        -9.62125015258789
      ],
      [
        "▁તેમણે",
        -9.62177848815918
      ],
      [
        "ஸ்",
        -9.62320327758789
      ],
      [
        "▁करीब",
        -9.62320613861084
      ],
      [
        "▁Modi",
        -9.623918533325195
      ],
      [
        "▁পরে",
        -9.624260902404785
      ],
      [
        "▁ବୋଲି",
        -9.624686241149902
      ],
      [
        "▁जहां",
        -9.624882698059082
      ],
      [
        "ുകയും",
        -9.625192642211914
      ],
      [
        "▁રહ્યા",
        -9.625527381896973
      ],
      [
        "▁வரும்",
        -9.625930786132812
      ],
      [
        "▁செய்ய",
        -9.626627922058105
      ],
      [
        "▁Published",
        -9.627525329589844
      ],
      [
        "▁સામે",
        -9.628045082092285
      ],
      [
        "▁দু",
        -9.629103660583496
      ],
      [
        "▁case",
        -9.629798889160156
      ],
      [
        "▁ছিলেন",
        -9.631457328796387
      ],
      [
        "▁కలిగి",
        -9.632391929626465
      ],
      [
        "▁যা",
        -9.632564544677734
      ],
      [
        "▁এমন",
        -9.63257884979248
      ],
      [
        "▁निर्णय",
        -9.633519172668457
      ],
      [
        "▁ਕੁਮਾਰ",
        -9.633554458618164
      ],
      [
        "▁ਜ",
        -9.633832931518555
      ],
      [
        "▁back",
        -9.633991241455078
      ],
      [
        "▁between",
        -9.63419246673584
      ],
      [
        "യ്ക്ക്",
        -9.634459495544434
      ],
      [
        "▁through",
        -9.635363578796387
      ],
      [
        "▁un",
        -9.637019157409668
      ],
      [
        "▁F",
        -9.637057304382324
      ],
      [
        "▁Government",
        -9.639333724975586
      ],
      [
        "▁आवश्यक",
        -9.640478134155273
      ],
      [
        "▁पानी",
        -9.640827178955078
      ],
      [
        "▁ನಾವು",
        -9.641165733337402
      ],
      [
        "▁நிலையில்",
        -9.642925262451172
      ],
      [
        "▁ಕೆಲಸ",
        -9.644290924072266
      ],
      [
        "▁जे",
        -9.644553184509277
      ],
      [
        "▁before",
        -9.64466667175293
      ],
      [
        "▁जिला",
        -9.64535903930664
      ],
      [
        "▁cent",
        -9.645827293395996
      ],
      [
        "▁इसमें",
        -9.646659851074219
      ],
      [
        "▁make",
        -9.64712905883789
      ],
      [
        "▁ఉన్నాయి",
        -9.647514343261719
      ],
      [
        "க",
        -9.648566246032715
      ],
      [
        "▁ଏବଂ",
        -9.648818969726562
      ],
      [
        "▁খবর",
        -9.649994850158691
      ],
      [
        "▁जिसमें",
        -9.650642395019531
      ],
      [
        "▁দেশের",
        -9.651201248168945
      ],
      [
        "▁बैठक",
        -9.652366638183594
      ],
      [
        "▁रंग",
        -9.653047561645508
      ],
      [
        "▁കൂടുതൽ",
        -9.653388023376465
      ],
      [
        "▁গেছে",
        -9.654047012329102
      ],
      [
        "▁২",
        -9.65483283996582
      ],
      [
        "▁സർക്കാർ",
        -9.655389785766602
      ],
      [
        "▁ഡി",
        -9.65544605255127
      ],
      [
        "▁পর্যন্ত",
        -9.655542373657227
      ],
      [
        "▁বিরুদ্ধে",
        -9.656782150268555
      ],
      [
        "క",
        -9.657099723815918
      ],
      [
        "▁ਘਰ",
        -9.657618522644043
      ],
      [
        "▁`",
        -9.65947151184082
      ],
      [
        "▁ನಾನು",
        -9.659764289855957
      ],
      [
        "▁தமிழ்",
        -9.65998363494873
      ],
      [
        "▁रुपए",
        -9.660382270812988
      ],
      [
        "▁Dec",
        -9.660594940185547
      ],
      [
        "▁दूसरे",
        -9.661020278930664
      ],
      [
        "ट",
        -9.661762237548828
      ],
      [
        "▁ਤਰ੍ਹਾਂ",
        -9.663482666015625
      ],
      [
        "▁ती",
        -9.664501190185547
      ],
      [
        "▁என்ன",
        -9.665580749511719
      ],
      [
        "▁अलावा",
        -9.666231155395508
      ],
      [
        "▁વાત",
        -9.667159080505371
      ],
      [
        "▁प्रमुख",
        -9.667367935180664
      ],
      [
        "ावर",
        -9.66742992401123
      ],
      [
        "ುವುದು",
        -9.66807746887207
      ],
      [
        "▁നിങ്ങൾ",
        -9.668240547180176
      ],
      [
        "▁നി",
        -9.668407440185547
      ],
      [
        "▁ಮೊದಲ",
        -9.66845989227295
      ],
      [
        "▁कोर्ट",
        -9.669485092163086
      ],
      [
        "▁মতো",
        -9.669617652893066
      ],
      [
        "களும்",
        -9.669900894165039
      ],
      [
        "▁करण्यासाठी",
        -9.670044898986816
      ],
      [
        "▁राज",
        -9.671525955200195
      ],
      [
        "না",
        -9.67170524597168
      ],
      [
        "▁ਐਸ",
        -9.67273998260498
      ],
      [
        "▁उसकी",
        -9.67416000366211
      ],
      [
        "▁Kashmir",
        -9.674371719360352
      ],
      [
        "▁அவர்கள்",
        -9.674530982971191
      ],
      [
        "▁many",
        -9.674811363220215
      ],
      [
        "▁ਸਕਦੇ",
        -9.675202369689941
      ],
      [
        "▁your",
        -9.676143646240234
      ],
      [
        "▁दिए",
        -9.67617416381836
      ],
      [
        "▁डॉ",
        -9.676486015319824
      ],
      [
        "जी",
        -9.677118301391602
      ],
      [
        "o",
        -9.677298545837402
      ],
      [
        "▁ਕੀ",
        -9.67744255065918
      ],
      [
        "ಿರುವ",
        -9.678069114685059
      ],
      [
        "ಯಿಂದ",
        -9.67811393737793
      ],
      [
        "ੋ",
        -9.678560256958008
      ],
      [
        "▁ਕਮੇਟੀ",
        -9.678916931152344
      ],
      [
        "ింది",
        -9.679340362548828
      ],
      [
        "▁ਸਬੰਧੀ",
        -9.679526329040527
      ],
      [
        "▁वजह",
        -9.679697036743164
      ],
      [
        "▁मांग",
        -9.680395126342773
      ],
      [
        "▁মা",
        -9.681724548339844
      ],
      [
        "ವಾದ",
        -9.682568550109863
      ],
      [
        "ା",
        -9.684052467346191
      ],
      [
        "▁करत",
        -9.684256553649902
      ],
      [
        "▁ਦੇਣ",
        -9.684903144836426
      ],
      [
        "▁world",
        -9.685250282287598
      ],
      [
        "▁may",
        -9.6859769821167
      ],
      [
        "▁विधानसभा",
        -9.686227798461914
      ],
      [
        "▁నా",
        -9.686482429504395
      ],
      [
        "▁चर्चा",
        -9.687254905700684
      ],
      [
        "સ",
        -9.687509536743164
      ],
      [
        "▁ਗੁਰੂ",
        -9.687602043151855
      ],
      [
        "▁खान",
        -9.687664031982422
      ],
      [
        "▁शर्मा",
        -9.687944412231445
      ],
      [
        "▁ସହ",
        -9.688469886779785
      ],
      [
        "▁ત્યાં",
        -9.689302444458008
      ],
      [
        "▁হ",
        -9.689727783203125
      ],
      [
        "ಕ",
        -9.690695762634277
      ],
      [
        "▁ਗੱਲ",
        -9.691838264465332
      ],
      [
        "▁দিতে",
        -9.692123413085938
      ],
      [
        "▁તેમને",
        -9.692352294921875
      ],
      [
        "▁ಎರಡು",
        -9.692462921142578
      ],
      [
        "ണം",
        -9.692549705505371
      ],
      [
        "▁जनता",
        -9.693293571472168
      ],
      [
        "డానికి",
        -9.69361400604248
      ],
      [
        "या",
        -9.694633483886719
      ],
      [
        "ல",
        -9.6954927444458
      ],
      [
        "ുന്ന",
        -9.695616722106934
      ],
      [
        "▁कभी",
        -9.695622444152832
      ],
      [
        "▁ਭਾਰਤ",
        -9.696220397949219
      ],
      [
        "▁അവർ",
        -9.696370124816895
      ],
      [
        "ಯೇ",
        -9.696581840515137
      ],
      [
        "▁কোনও",
        -9.69731330871582
      ],
      [
        "▁તમામ",
        -9.69742202758789
      ],
      [
        "▁होत",
        -9.698482513427734
      ],
      [
        "▁दूर",
        -9.698549270629883
      ],
      [
        "▁যদি",
        -9.698695182800293
      ],
      [
        "▁हालांकि",
        -9.69957447052002
      ],
      [
        "▁परिवार",
        -9.701061248779297
      ],
      [
        "▁ನ",
        -9.701151847839355
      ],
      [
        "ਦਾ",
        -9.701515197753906
      ],
      [
        "▁film",
        -9.70386028289795
      ],
      [
        "▁ಕೆ",
        -9.704026222229004
      ],
      [
        "▁सी",
        -9.704859733581543
      ],
      [
        "▁আপনার",
        -9.70518970489502
      ],
      [
        "▁ਜ਼ਿਲ੍ਹਾ",
        -9.705301284790039
      ],
      [
        "▁most",
        -9.706634521484375
      ],
      [
        "மும்",
        -9.70763874053955
      ],
      [
        "▁పార్టీ",
        -9.708980560302734
      ],
      [
        "மான",
        -9.709388732910156
      ],
      [
        "ஃ",
        -9.709632873535156
      ],
      [
        "▁V",
        -9.709650993347168
      ],
      [
        "ার",
        -9.709758758544922
      ],
      [
        "ಬೇಕು",
        -9.71002197265625
      ],
      [
        "ୀ",
        -9.710403442382812
      ],
      [
        "▁ब",
        -9.710478782653809
      ],
      [
        "▁ਚੋਣ",
        -9.710575103759766
      ],
      [
        "▁बाहर",
        -9.710944175720215
      ],
      [
        "లకు",
        -9.711647033691406
      ],
      [
        "▁ਆਈ",
        -9.713356018066406
      ],
      [
        "▁येथे",
        -9.714614868164062
      ],
      [
        "▁समाज",
        -9.715143203735352
      ],
      [
        "ാം",
        -9.715253829956055
      ],
      [
        "▁પાણી",
        -9.716559410095215
      ],
      [
        "▁সাথে",
        -9.717879295349121
      ],
      [
        "▁ਰਾਜ",
        -9.718470573425293
      ],
      [
        "▁அ",
        -9.720276832580566
      ],
      [
        "▁just",
        -9.720537185668945
      ],
      [
        "▁জাতীয়",
        -9.720755577087402
      ],
      [
        "▁ഞാൻ",
        -9.720947265625
      ],
      [
        "ാൽ",
        -9.7213716506958
      ],
      [
        "▁ప్రతి",
        -9.721466064453125
      ],
      [
        "▁कहना",
        -9.722138404846191
      ],
      [
        "▁જરૂર",
        -9.722379684448242
      ],
      [
        "▁बैंक",
        -9.723115921020508
      ],
      [
        "▁मन",
        -9.723196983337402
      ],
      [
        "▁As",
        -9.723363876342773
      ],
      [
        "▁प्राप्त",
        -9.723469734191895
      ],
      [
        "▁আ",
        -9.723876953125
      ],
      [
        "ांना",
        -9.72436809539795
      ],
      [
        "▁Nov",
        -9.724793434143066
      ],
      [
        "▁$",
        -9.725081443786621
      ],
      [
        "▁ਰੁਪਏ",
        -9.725831985473633
      ],
      [
        "▁మంది",
        -9.726386070251465
      ],
      [
        "▁ಎಸ್",
        -9.727714538574219
      ],
      [
        "▁दिवस",
        -9.727794647216797
      ],
      [
        "▁১৯",
        -9.7279634475708
      ],
      [
        "▁কী",
        -9.73007869720459
      ],
      [
        "▁യു",
        -9.730141639709473
      ],
      [
        "▁మాత్రమే",
        -9.731263160705566
      ],
      [
        "வை",
        -9.731560707092285
      ],
      [
        "▁ਕਾਂਗਰਸ",
        -9.731672286987305
      ],
      [
        "▁യി",
        -9.732128143310547
      ],
      [
        "▁হলে",
        -9.73233413696289
      ],
      [
        "▁सब",
        -9.732705116271973
      ],
      [
        "▁সরকার",
        -9.73315715789795
      ],
      [
        "▁உள்ளது",
        -9.733460426330566
      ],
      [
        "▁ਜਾਵੇਗਾ",
        -9.733695983886719
      ],
      [
        "▁सेवा",
        -9.733802795410156
      ],
      [
        "▁তাকে",
        -9.734315872192383
      ],
      [
        "▁આજે",
        -9.734460830688477
      ],
      [
        "ड",
        -9.736430168151855
      ],
      [
        "ിനെ",
        -9.736566543579102
      ],
      [
        "▁জেলা",
        -9.736875534057617
      ],
      [
        "▁ਇਨ੍ਹਾਂ",
        -9.737037658691406
      ],
      [
        "▁Monday",
        -9.73807430267334
      ],
      [
        "प",
        -9.738691329956055
      ],
      [
        "മ",
        -9.739038467407227
      ],
      [
        "▁मंदिर",
        -9.739192008972168
      ],
      [
        "▁सुरक्षा",
        -9.739989280700684
      ],
      [
        "னர்",
        -9.740934371948242
      ],
      [
        "▁ਕਰਨਾ",
        -9.741678237915039
      ],
      [
        "▁ಮಾಡಲು",
        -9.74359130859375
      ],
      [
        "▁देते",
        -9.743614196777344
      ],
      [
        "▁તમ",
        -9.743887901306152
      ],
      [
        "▁ಅನ್ನು",
        -9.743973731994629
      ],
      [
        "▁इंडिया",
        -9.744065284729004
      ],
      [
        "▁ਵੱਧ",
        -9.744114875793457
      ],
      [
        "▁लोक",
        -9.74609661102295
      ],
      [
        "▁ಇಲ್ಲ",
        -9.746767044067383
      ],
      [
        "▁দল",
        -9.74699592590332
      ],
      [
        "க்கும்",
        -9.747344017028809
      ],
      [
        "▁போது",
        -9.747611999511719
      ],
      [
        "▁नजर",
        -9.74792194366455
      ],
      [
        "▁தனது",
        -9.747929573059082
      ],
      [
        "▁दुनिया",
        -9.747992515563965
      ],
      [
        "▁इसका",
        -9.748438835144043
      ],
      [
        "ers",
        -9.748621940612793
      ],
      [
        "ಲ್",
        -9.748763084411621
      ],
      [
        "▁आपके",
        -9.749835014343262
      ],
      [
        "▁పెద్ద",
        -9.751297950744629
      ],
      [
        "િત",
        -9.751558303833008
      ],
      [
        "▁दें",
        -9.751969337463379
      ],
      [
        "▁વર્ષ",
        -9.752065658569336
      ],
      [
        "▁ਕਰਦਾ",
        -9.75247859954834
      ],
      [
        "▁সম্পাদক",
        -9.752992630004883
      ],
      [
        "▁જાય",
        -9.753365516662598
      ],
      [
        "▁Friday",
        -9.75419807434082
      ],
      [
        "▁राहुल",
        -9.754241943359375
      ],
      [
        "▁કરતા",
        -9.754941940307617
      ],
      [
        "▁ਪਾਣੀ",
        -9.756775856018066
      ],
      [
        "▁ಈಗ",
        -9.756877899169922
      ],
      [
        "▁ঢাকা",
        -9.757269859313965
      ],
      [
        "▁પોતાના",
        -9.757614135742188
      ],
      [
        "▁ਚਾਹੀਦਾ",
        -9.757932662963867
      ],
      [
        "▁बड़ा",
        -9.758001327514648
      ],
      [
        "▁दिली",
        -9.759286880493164
      ],
      [
        "▁बता",
        -9.759495735168457
      ],
      [
        "▁पता",
        -9.75949764251709
      ],
      [
        "▁W",
        -9.759591102600098
      ],
      [
        "▁चल",
        -9.75975227355957
      ],
      [
        "ದೆ",
        -9.760015487670898
      ],
      [
        "▁ಎ",
        -9.7611083984375
      ],
      [
        "േ",
        -9.761343955993652
      ],
      [
        "▁ਜਾਂਦਾ",
        -9.761595726013184
      ],
      [
        "▁સામાન્ય",
        -9.761789321899414
      ],
      [
        "▁શરૂ",
        -9.761990547180176
      ],
      [
        "▁అవసరం",
        -9.763319969177246
      ],
      [
        "2",
        -9.76395034790039
      ],
      [
        "▁আপডেট",
        -9.764026641845703
      ],
      [
        "▁৩",
        -9.76435375213623
      ],
      [
        "▁वाला",
        -9.764677047729492
      ],
      [
        "▁मौत",
        -9.765602111816406
      ],
      [
        "▁ചെയ്ത",
        -9.767794609069824
      ],
      [
        "મ",
        -9.768917083740234
      ],
      [
        "▁दिनों",
        -9.769793510437012
      ],
      [
        "▁সভাপতি",
        -9.771098136901855
      ],
      [
        "▁Chief",
        -9.771503448486328
      ],
      [
        "▁me",
        -9.771794319152832
      ],
      [
        "▁ಕಾಂಗ್ರೆಸ್",
        -9.772163391113281
      ],
      [
        "▁हमारे",
        -9.772193908691406
      ],
      [
        "▁અમે",
        -9.772687911987305
      ],
      [
        "ിട്ടുണ്ട്",
        -9.772802352905273
      ],
      [
        "▁ಬಿ",
        -9.7735013961792
      ],
      [
        "▁विरोध",
        -9.773860931396484
      ],
      [
        "▁જેમાં",
        -9.774124145507812
      ],
      [
        "▁संख्या",
        -9.774748802185059
      ],
      [
        "▁ਹੁੰਦਾ",
        -9.774982452392578
      ],
      [
        "▁ಇದೆ",
        -9.775691032409668
      ],
      [
        "▁पूरा",
        -9.776448249816895
      ],
      [
        "▁L",
        -9.776603698730469
      ],
      [
        "▁வந்த",
        -9.776649475097656
      ],
      [
        "▁Read",
        -9.777725219726562
      ],
      [
        "▁మంచి",
        -9.77813720703125
      ],
      [
        "▁Tuesday",
        -9.779135704040527
      ],
      [
        "▁বি",
        -9.779229164123535
      ],
      [
        "▁প্রধান",
        -9.779779434204102
      ],
      [
        "▁बड़े",
        -9.780624389648438
      ],
      [
        "▁এটা",
        -9.781384468078613
      ],
      [
        "▁ਦੇਸ਼",
        -9.781805992126465
      ],
      [
        "▁ਵਿਭਾਗ",
        -9.782747268676758
      ],
      [
        "▁ನಲ್ಲಿ",
        -9.78299617767334
      ],
      [
        "▁2012",
        -9.783469200134277
      ],
      [
        "▁बाजार",
        -9.783846855163574
      ],
      [
        "ਤਾ",
        -9.784475326538086
      ],
      [
        "ए",
        -9.784795761108398
      ],
      [
        "▁including",
        -9.787131309509277
      ],
      [
        "▁re",
        -9.787302017211914
      ],
      [
        "▁પ્રથમ",
        -9.788064956665039
      ],
      [
        "▁Pakistan",
        -9.789372444152832
      ],
      [
        "▁ਤੁਸੀਂ",
        -9.79008674621582
      ],
      [
        "▁દરમિયાન",
        -9.791637420654297
      ],
      [
        "▁ಸಹ",
        -9.792363166809082
      ],
      [
        "▁मुताबिक",
        -9.792868614196777
      ],
      [
        "তা",
        -9.79391860961914
      ],
      [
        "▁প্রায়",
        -9.793964385986328
      ],
      [
        "ల్",
        -9.794044494628906
      ],
      [
        "▁તમારી",
        -9.794361114501953
      ],
      [
        "ో",
        -9.794487953186035
      ],
      [
        "▁શકાય",
        -9.794870376586914
      ],
      [
        "▁जाए",
        -9.79513931274414
      ],
      [
        "▁১০",
        -9.795244216918945
      ],
      [
        "▁க",
        -9.795808792114258
      ],
      [
        "త",
        -9.796329498291016
      ],
      [
        "▁ಉತ್ತಮ",
        -9.796526908874512
      ],
      [
        "▁തന്റെ",
        -9.796606063842773
      ],
      [
        "m",
        -9.796616554260254
      ],
      [
        "▁ନେଇ",
        -9.798571586608887
      ],
      [
        "▁రూ",
        -9.79861831665039
      ],
      [
        "▁ಅದು",
        -9.798842430114746
      ],
      [
        "▁મળી",
        -9.799551963806152
      ],
      [
        "▁मैच",
        -9.8002347946167
      ],
      [
        "▁মো",
        -9.800729751586914
      ],
      [
        "▁വരെ",
        -9.800747871398926
      ],
      [
        "▁ಮಾತ್ರ",
        -9.800783157348633
      ],
      [
        "ക്കും",
        -9.801656723022461
      ],
      [
        "▁ਆਮ",
        -9.80235767364502
      ],
      [
        "ായിരുന്നു",
        -9.80241870880127
      ],
      [
        "20",
        -9.802800178527832
      ],
      [
        "▁then",
        -9.802874565124512
      ],
      [
        "▁తమ",
        -9.80348014831543
      ],
      [
        "▁આપી",
        -9.803540229797363
      ],
      [
        "▁પોલીસ",
        -9.804426193237305
      ],
      [
        "▁200",
        -9.805008888244629
      ],
      [
        "▁ನನ್ನ",
        -9.805224418640137
      ],
      [
        "ವಾಗಿದೆ",
        -9.805713653564453
      ],
      [
        "▁08",
        -9.8059720993042
      ],
      [
        "▁chief",
        -9.806570053100586
      ],
      [
        "ുക",
        -9.806654930114746
      ],
      [
        "▁रन",
        -9.806907653808594
      ],
      [
        "▁आदेश",
        -9.806961059570312
      ],
      [
        "▁ની",
        -9.807721138000488
      ],
      [
        "ੂ",
        -9.80808162689209
      ],
      [
        "▁ली",
        -9.808552742004395
      ],
      [
        "▁very",
        -9.808650016784668
      ],
      [
        "ण",
        -9.808834075927734
      ],
      [
        "▁खुद",
        -9.808918952941895
      ],
      [
        "▁ఎలా",
        -9.809538841247559
      ],
      [
        "ான",
        -9.809867858886719
      ],
      [
        "▁तहत",
        -9.810461044311523
      ],
      [
        "▁ప్రభుత్వం",
        -9.81070327758789
      ],
      [
        "▁ধরে",
        -9.811304092407227
      ],
      [
        "▁জানা",
        -9.811674118041992
      ],
      [
        "ছে",
        -9.812320709228516
      ],
      [
        "▁ಬಿಜೆಪಿ",
        -9.81353759765625
      ],
      [
        "▁വളരെ",
        -9.81381893157959
      ],
      [
        "▁हूं",
        -9.813882827758789
      ],
      [
        "▁70",
        -9.8140230178833
      ],
      [
        "▁వరకు",
        -9.81411361694336
      ],
      [
        "வர்",
        -9.815237998962402
      ],
      [
        "▁സംസ്ഥാന",
        -9.815905570983887
      ],
      [
        "▁মানুষ",
        -9.81676197052002
      ],
      [
        "▁மூலம்",
        -9.816862106323242
      ],
      [
        "ય",
        -9.816967010498047
      ],
      [
        "▁आधार",
        -9.817431449890137
      ],
      [
        "▁வரை",
        -9.818299293518066
      ],
      [
        "▁Thursday",
        -9.818477630615234
      ],
      [
        "▁minister",
        -9.819177627563477
      ],
      [
        "▁35",
        -9.820263862609863
      ],
      [
        "▁દરેક",
        -9.820317268371582
      ],
      [
        "▁વિશે",
        -9.821346282958984
      ],
      [
        "वा",
        -9.821613311767578
      ],
      [
        "િંગ",
        -9.821824073791504
      ],
      [
        "▁કરવાની",
        -9.82300853729248
      ],
      [
        "ांची",
        -9.823500633239746
      ],
      [
        "▁ବି",
        -9.824134826660156
      ],
      [
        "▁उन",
        -9.824136734008789
      ],
      [
        "ओं",
        -9.824662208557129
      ],
      [
        "▁पांच",
        -9.824723243713379
      ],
      [
        "▁രൂപ",
        -9.82530689239502
      ],
      [
        "▁কে",
        -9.827146530151367
      ],
      [
        "▁તેમની",
        -9.827208518981934
      ],
      [
        "▁என்றும்",
        -9.82724380493164
      ],
      [
        "▁কৰি",
        -9.82748031616211
      ],
      [
        "▁नगर",
        -9.827691078186035
      ],
      [
        "▁ਅਕਾਲੀ",
        -9.828761100769043
      ],
      [
        "ಿಂದ",
        -9.828808784484863
      ],
      [
        "(",
        -9.829815864562988
      ],
      [
        "▁H",
        -9.830066680908203
      ],
      [
        "▁మధ్య",
        -9.830536842346191
      ],
      [
        "▁మా",
        -9.830787658691406
      ],
      [
        "▁वहां",
        -9.831879615783691
      ],
      [
        "णे",
        -9.832141876220703
      ],
      [
        "யாக",
        -9.832423210144043
      ],
      [
        "▁around",
        -9.83279800415039
      ],
      [
        "▁ਮਾਮਲੇ",
        -9.834099769592285
      ],
      [
        "▁Oct",
        -9.83427906036377
      ],
      [
        "▁down",
        -9.834692001342773
      ],
      [
        "▁07",
        -9.83537483215332
      ],
      [
        "▁৫",
        -9.835409164428711
      ],
      [
        "▁ട",
        -9.835882186889648
      ],
      [
        "्या",
        -9.836418151855469
      ],
      [
        "an",
        -9.836896896362305
      ],
      [
        "▁ര",
        -9.837407112121582
      ],
      [
        "▁व्यक्ति",
        -9.839974403381348
      ],
      [
        "▁இந்திய",
        -9.840269088745117
      ],
      [
        "▁Wednesday",
        -9.840322494506836
      ],
      [
        "▁ఇతర",
        -9.840356826782227
      ],
      [
        "▁There",
        -9.840435028076172
      ],
      [
        "▁ആദ്യ",
        -9.841072082519531
      ],
      [
        "▁হল",
        -9.841302871704102
      ],
      [
        "ರೆ",
        -9.841609954833984
      ],
      [
        "▁তখন",
        -9.842182159423828
      ],
      [
        "▁ਖ਼ਬਰ",
        -9.842594146728516
      ],
      [
        "▁যাবে",
        -9.842851638793945
      ],
      [
        "களுக்கு",
        -9.843864440917969
      ],
      [
        "▁ਡਾ",
        -9.8444185256958
      ],
      [
        "▁କରିବା",
        -9.84605598449707
      ],
      [
        "▁కొత్త",
        -9.846071243286133
      ],
      [
        "▁रात",
        -9.846076965332031
      ],
      [
        "வே",
        -9.846155166625977
      ],
      [
        "▁यांना",
        -9.846542358398438
      ],
      [
        "▁स्थान",
        -9.846722602844238
      ],
      [
        "▁કેટલાક",
        -9.846989631652832
      ],
      [
        "▁દિવસ",
        -9.847227096557617
      ],
      [
        "▁ఇప్పుడు",
        -9.847880363464355
      ],
      [
        "ି",
        -9.847942352294922
      ],
      [
        "▁രണ്ട്",
        -9.8485746383667
      ],
      [
        "▁ಡಿ",
        -9.849973678588867
      ],
      [
        "▁দাবি",
        -9.850095748901367
      ],
      [
        "▁म्हणजे",
        -9.850896835327148
      ],
      [
        "▁how",
        -9.8511323928833
      ],
      [
        "ము",
        -9.852444648742676
      ],
      [
        "▁शिक्षा",
        -9.852730751037598
      ],
      [
        "▁क्रिकेट",
        -9.852827072143555
      ],
      [
        "▁09",
        -9.853039741516113
      ],
      [
        "▁पद",
        -9.853485107421875
      ],
      [
        "▁ചില",
        -9.853748321533203
      ],
      [
        "▁பி",
        -9.854317665100098
      ],
      [
        "ವೇ",
        -9.854334831237793
      ],
      [
        "▁ਫਿਰ",
        -9.854401588439941
      ],
      [
        "▁court",
        -9.855145454406738
      ],
      [
        "▁जीत",
        -9.855659484863281
      ],
      [
        "▁Aug",
        -9.855734825134277
      ],
      [
        "▁यादव",
        -9.856303215026855
      ],
      [
        "ப்பட்டுள்ளது",
        -9.856518745422363
      ],
      [
        "▁పాటు",
        -9.856992721557617
      ],
      [
        "▁पहली",
        -9.857297897338867
      ],
      [
        "ब",
        -9.857330322265625
      ],
      [
        "▁because",
        -9.857381820678711
      ],
      [
        "▁થઇ",
        -9.857694625854492
      ],
      [
        "▁Mar",
        -9.85804271697998
      ],
      [
        "▁હું",
        -9.858245849609375
      ],
      [
        "▁ಕೇವಲ",
        -9.858384132385254
      ],
      [
        "▁सिर्फ",
        -9.859077453613281
      ],
      [
        "▁तरी",
        -9.859668731689453
      ],
      [
        "▁ஆண்டு",
        -9.86007308959961
      ],
      [
        "▁ವಿ",
        -9.86012077331543
      ],
      [
        "▁team",
        -9.86100959777832
      ],
      [
        "▁ല",
        -9.862915992736816
      ],
      [
        "़",
        -9.863176345825195
      ],
      [
        "▁जिस",
        -9.863740921020508
      ],
      [
        "▁पूर्ण",
        -9.863872528076172
      ],
      [
        "▁ಸಿ",
        -9.864133834838867
      ],
      [
        "▁পৰা",
        -9.864187240600586
      ],
      [
        "▁ਦਿੱਲੀ",
        -9.864870071411133
      ],
      [
        "▁જોવા",
        -9.865139961242676
      ],
      [
        "▁దాని",
        -9.865898132324219
      ],
      [
        "▁जगह",
        -9.866167068481445
      ],
      [
        "▁बच्चों",
        -9.86619758605957
      ],
      [
        "କ",
        -9.866907119750977
      ],
      [
        "▁પાસે",
        -9.86751651763916
      ],
      [
        "▁days",
        -9.867615699768066
      ],
      [
        "▁करेंगे",
        -9.868538856506348
      ],
      [
        "▁आया",
        -9.870071411132812
      ],
      [
        "▁80",
        -9.871007919311523
      ],
      [
        "▁आम",
        -9.871113777160645
      ],
      [
        "▁करती",
        -9.872013092041016
      ],
      [
        "▁ಅದರ",
        -9.87222957611084
      ],
      [
        "ങ്ങളും",
        -9.872264862060547
      ],
      [
        "िक",
        -9.872939109802246
      ],
      [
        "▁स्कूल",
        -9.87308406829834
      ],
      [
        "▁બધા",
        -9.873152732849121
      ],
      [
        "▁फीसदी",
        -9.873412132263184
      ],
      [
        "▁ಕಾರಣ",
        -9.873613357543945
      ],
      [
        "▁ছবি",
        -9.874137878417969
      ],
      [
        "▁महाराष्ट्र",
        -9.874161720275879
      ],
      [
        "▁सरकारी",
        -9.874640464782715
      ],
      [
        "▁இ",
        -9.874695777893066
      ],
      [
        "▁ರಾಜ್ಯ",
        -9.875314712524414
      ],
      [
        "▁গিয়ে",
        -9.875732421875
      ],
      [
        "▁come",
        -9.875884056091309
      ],
      [
        "▁प्रदर्शन",
        -9.876030921936035
      ],
      [
        "ટ",
        -9.876032829284668
      ],
      [
        "▁മുതൽ",
        -9.876663208007812
      ],
      [
        "्",
        -9.876858711242676
      ],
      [
        "▁off",
        -9.877114295959473
      ],
      [
        "▁उसने",
        -9.877178192138672
      ],
      [
        "▁ವಿರುದ್ಧ",
        -9.877742767333984
      ],
      [
        "▁ইসলাম",
        -9.877829551696777
      ],
      [
        "▁ను",
        -9.878032684326172
      ],
      [
        "▁কৰা",
        -9.878121376037598
      ],
      [
        "▁স",
        -9.878253936767578
      ],
      [
        "▁n",
        -9.878813743591309
      ],
      [
        "▁ক",
        -9.879293441772461
      ],
      [
        "▁तैयार",
        -9.87945556640625
      ],
      [
        "▁ಕೂಡ",
        -9.879720687866211
      ],
      [
        "▁500",
        -9.879810333251953
      ],
      [
        "▁குறித்து",
        -9.88001537322998
      ],
      [
        "ുമായി",
        -9.880338668823242
      ],
      [
        "ന",
        -9.880537033081055
      ],
      [
        "▁त्याच्या",
        -9.88089656829834
      ],
      [
        "1",
        -9.881017684936523
      ],
      [
        "▁कार",
        -9.88117790222168
      ],
      [
        "ನೇ",
        -9.881651878356934
      ],
      [
        "▁ਸਭਾ",
        -9.88296127319336
      ],
      [
        "ായ",
        -9.883490562438965
      ],
      [
        "▁उपलब्ध",
        -9.88390827178955
      ],
      [
        "▁ത്തി",
        -9.884716033935547
      ],
      [
        "▁કર્યું",
        -9.885578155517578
      ],
      [
        "▁मेरे",
        -9.885995864868164
      ],
      [
        "ि",
        -9.886658668518066
      ],
      [
        "▁रिपोर्ट",
        -9.886829376220703
      ],
      [
        "കളും",
        -9.887070655822754
      ],
      [
        "▁ખાસ",
        -9.88736629486084
      ],
      [
        "▁ముందు",
        -9.889124870300293
      ],
      [
        "▁set",
        -9.889277458190918
      ],
      [
        "ల్లో",
        -9.889460563659668
      ],
      [
        "▁ગયા",
        -9.890472412109375
      ],
      [
        "లా",
        -9.890820503234863
      ],
      [
        "▁তিন",
        -9.892163276672363
      ],
      [
        "▁रहने",
        -9.892792701721191
      ],
      [
        "▁তৈরি",
        -9.893193244934082
      ],
      [
        "▁న",
        -9.893474578857422
      ],
      [
        "▁us",
        -9.894661903381348
      ],
      [
        "▁जात",
        -9.894972801208496
      ],
      [
        "▁way",
        -9.895305633544922
      ],
      [
        "ിരിക്കുന്നത്",
        -9.895933151245117
      ],
      [
        "▁क",
        -9.895960807800293
      ],
      [
        "▁পড়ে",
        -9.896312713623047
      ],
      [
        "▁01",
        -9.896435737609863
      ],
      [
        "▁जिसके",
        -9.896900177001953
      ],
      [
        "▁సమయంలో",
        -9.897258758544922
      ],
      [
        "మైన",
        -9.89787769317627
      ],
      [
        "▁అనే",
        -9.898295402526855
      ],
      [
        "▁स्थित",
        -9.898481369018555
      ],
      [
        "▁നടത്തിയ",
        -9.898674011230469
      ],
      [
        "ਵਾਂ",
        -9.898735046386719
      ],
      [
        "▁ਮੰਗ",
        -9.8989839553833
      ],
      [
        "▁வந்து",
        -9.899189949035645
      ],
      [
        "▁women",
        -9.89924144744873
      ],
      [
        "ांनी",
        -9.899446487426758
      ],
      [
        "▁പൊലീസ്",
        -9.899669647216797
      ],
      [
        "▁બની",
        -9.899763107299805
      ],
      [
        "▁କରିଥିଲେ",
        -9.900343894958496
      ],
      [
        "ಾಗ",
        -9.900449752807617
      ],
      [
        "▁part",
        -9.900639533996582
      ],
      [
        "▁दर",
        -9.900970458984375
      ],
      [
        "▁GMT",
        -9.90129566192627
      ],
      [
        "▁go",
        -9.902196884155273
      ],
      [
        "▁Sep",
        -9.90236759185791
      ],
      [
        "▁മാത്രം",
        -9.902661323547363
      ],
      [
        "▁आर्थिक",
        -9.902979850769043
      ],
      [
        "▁did",
        -9.903555870056152
      ],
      [
        "ല്",
        -9.903593063354492
      ],
      [
        "▁added",
        -9.90389347076416
      ],
      [
        "▁मिला",
        -9.904077529907227
      ],
      [
        "▁ਸ਼ੇਅਰ",
        -9.904251098632812
      ],
      [
        "▁ਘੱਟ",
        -9.904847145080566
      ],
      [
        "▁ಹೆಚ್ಚಿನ",
        -9.905950546264648
      ],
      [
        "ಬಹುದು",
        -9.906659126281738
      ],
      [
        "3",
        -9.907109260559082
      ],
      [
        "▁দলের",
        -9.907681465148926
      ],
      [
        "ਿੰਗ",
        -9.907837867736816
      ],
      [
        "▁పని",
        -9.908101081848145
      ],
      [
        "▁ഇന്ത്യൻ",
        -9.909330368041992
      ],
      [
        "▁ಕಡಿಮೆ",
        -9.909780502319336
      ],
      [
        "),",
        -9.910727500915527
      ],
      [
        "▁ഇപ്പോൾ",
        -9.911078453063965
      ],
      [
        "▁ਸ਼ਹਿਰ",
        -9.91159725189209
      ],
      [
        "▁करके",
        -9.91275405883789
      ],
      [
        "के",
        -9.912907600402832
      ],
      [
        "▁చిన్న",
        -9.913111686706543
      ],
      [
        "▁2011",
        -9.913676261901855
      ],
      [
        "▁করছে",
        -9.913826942443848
      ],
      [
        "▁since",
        -9.915337562561035
      ],
      [
        "▁వ",
        -9.915558815002441
      ],
      [
        "▁today",
        -9.916237831115723
      ],
      [
        "▁ऐसी",
        -9.917447090148926
      ],
      [
        "▁புதிய",
        -9.91817569732666
      ],
      [
        "▁തി",
        -9.918386459350586
      ],
      [
        "r",
        -9.918482780456543
      ],
      [
        "வின்",
        -9.91878890991211
      ],
      [
        "4",
        -9.919075965881348
      ],
      [
        "▁প্রধানমন্ত্রী",
        -9.921475410461426
      ],
      [
        "▁నేను",
        -9.921831130981445
      ],
      [
        "▁જણાવ્યું",
        -9.923291206359863
      ],
      [
        "▁05",
        -9.923678398132324
      ],
      [
        "নি",
        -9.92402172088623
      ],
      [
        "▁समस्या",
        -9.924939155578613
      ],
      [
        "▁ಪ್ರತಿ",
        -9.925978660583496
      ],
      [
        "▁सवाल",
        -9.92663860321045
      ],
      [
        "▁विश्व",
        -9.92714786529541
      ],
      [
        "▁নিজের",
        -9.927632331848145
      ],
      [
        "ਡ",
        -9.928305625915527
      ],
      [
        "▁ને",
        -9.928707122802734
      ],
      [
        "▁தற்போது",
        -9.928923606872559
      ],
      [
        "▁மீது",
        -9.929842948913574
      ],
      [
        "▁বিশেষ",
        -9.930126190185547
      ],
      [
        "▁life",
        -9.930305480957031
      ],
      [
        "▁high",
        -9.930876731872559
      ],
      [
        "▁તેથી",
        -9.931144714355469
      ],
      [
        "▁आए",
        -9.931292533874512
      ],
      [
        "▁ਆਦਿ",
        -9.931315422058105
      ],
      [
        "▁వంటి",
        -9.931365013122559
      ],
      [
        "▁આવ્યા",
        -9.931607246398926
      ],
      [
        "▁नए",
        -9.93252944946289
      ],
      [
        "ವ",
        -9.933083534240723
      ],
      [
        "▁అనేక",
        -9.933086395263672
      ],
      [
        "▁പോലീസ്",
        -9.933347702026367
      ],
      [
        "▁संघ",
        -9.933368682861328
      ],
      [
        "▁ઘણા",
        -9.933856010437012
      ],
      [
        "िया",
        -9.933902740478516
      ],
      [
        "▁கூட",
        -9.934884071350098
      ],
      [
        "▁ದೊಡ್ಡ",
        -9.935005187988281
      ],
      [
        "▁company",
        -9.935062408447266
      ],
      [
        "▁district",
        -9.935925483703613
      ],
      [
        "▁यदि",
        -9.936301231384277
      ],
      [
        "▁Off",
        -9.93642520904541
      ],
      [
        "रा",
        -9.937167167663574
      ],
      [
        "▁They",
        -9.937594413757324
      ],
      [
        "व",
        -9.93773365020752
      ],
      [
        "▁मिली",
        -9.93901252746582
      ],
      [
        "▁told",
        -9.93976879119873
      ],
      [
        "▁वीडियो",
        -9.940394401550293
      ],
      [
        "▁असलेल्या",
        -9.940896034240723
      ],
      [
        "▁সাধারণ",
        -9.941865921020508
      ],
      [
        "▁ઉપર",
        -9.942230224609375
      ],
      [
        "▁ವೇಳೆ",
        -9.944097518920898
      ],
      [
        "▁students",
        -9.944695472717285
      ],
      [
        "▁मदद",
        -9.944806098937988
      ],
      [
        "▁தொடர்ந்து",
        -9.945186614990234
      ],
      [
        "▁ವಿವಿಧ",
        -9.945911407470703
      ],
      [
        "▁கொண்ட",
        -9.946650505065918
      ],
      [
        "▁सामना",
        -9.946737289428711
      ],
      [
        "▁ਜਾਰੀ",
        -9.946880340576172
      ],
      [
        "▁पत्र",
        -9.947526931762695
      ],
      [
        "▁আগের",
        -9.948148727416992
      ],
      [
        "▁More",
        -9.94894790649414
      ],
      [
        "▁उच्च",
        -9.949857711791992
      ],
      [
        "▁नरेंद्र",
        -9.950089454650879
      ],
      [
        "▁শেখ",
        -9.950637817382812
      ],
      [
        "▁অন্য",
        -9.952093124389648
      ],
      [
        "ಗಳಿಂದ",
        -9.952205657958984
      ],
      [
        "▁ਡੀ",
        -9.95241928100586
      ],
      [
        "▁খুব",
        -9.952759742736816
      ],
      [
        "▁प्रत्येक",
        -9.952802658081055
      ],
      [
        "▁இருந்த",
        -9.952929496765137
      ],
      [
        "▁പല",
        -9.953428268432617
      ],
      [
        "▁આવ્યો",
        -9.953742980957031
      ],
      [
        "▁four",
        -9.954324722290039
      ],
      [
        "▁फोन",
        -9.954556465148926
      ],
      [
        "▁लोकसभा",
        -9.954724311828613
      ],
      [
        "▁ਕਰਦਿਆਂ",
        -9.95477294921875
      ],
      [
        "▁ਵਾਲੀ",
        -9.954937934875488
      ],
      [
        "▁need",
        -9.955190658569336
      ],
      [
        "▁येथील",
        -9.955227851867676
      ],
      [
        "▁स्तर",
        -9.956382751464844
      ],
      [
        "▁आदि",
        -9.957200050354004
      ],
      [
        "▁ಕೇಂದ್ರ",
        -9.957365989685059
      ],
      [
        "▁2010",
        -9.95746898651123
      ],
      [
        "▁અલગ",
        -9.957860946655273
      ],
      [
        "▁সু",
        -9.958276748657227
      ],
      [
        "▁06",
        -9.958444595336914
      ],
      [
        "▁మీద",
        -9.958602905273438
      ],
      [
        "▁लेने",
        -9.958877563476562
      ],
      [
        "▁आयोजित",
        -9.960098266601562
      ],
      [
        "▁रह",
        -9.960598945617676
      ],
      [
        "▁প্রদান",
        -9.960708618164062
      ],
      [
        "▁ਪਰਿਵਾਰ",
        -9.960923194885254
      ],
      [
        "▁അല്ലെങ്കിൽ",
        -9.961248397827148
      ],
      [
        "▁மத்திய",
        -9.961393356323242
      ],
      [
        "▁next",
        -9.961928367614746
      ],
      [
        "ांचा",
        -9.96196460723877
      ],
      [
        "▁কারণ",
        -9.962276458740234
      ],
      [
        "யே",
        -9.962301254272461
      ],
      [
        "▁ਨਗਰ",
        -9.96252727508545
      ],
      [
        "▁इसकी",
        -9.96313762664795
      ],
      [
        "शी",
        -9.963257789611816
      ],
      [
        "▁ਹੇਠ",
        -9.963390350341797
      ],
      [
        "▁ଅ",
        -9.963475227355957
      ],
      [
        "▁ജി",
        -9.963485717773438
      ],
      [
        "▁तरफ",
        -9.964205741882324
      ],
      [
        "▁होणार",
        -9.964606285095215
      ],
      [
        "నా",
        -9.965056419372559
      ],
      [
        "▁কেউ",
        -9.965087890625
      ],
      [
        "વા",
        -9.965288162231445
      ],
      [
        "▁ਮੀਟਿੰਗ",
        -9.965507507324219
      ],
      [
        "▁తెలిపారు",
        -9.965993881225586
      ],
      [
        "▁तौर",
        -9.966310501098633
      ],
      [
        "▁ਬ",
        -9.967126846313477
      ],
      [
        "▁ਅਨੁਸਾਰ",
        -9.967179298400879
      ],
      [
        "▁For",
        -9.9679594039917
      ],
      [
        "▁మరో",
        -9.968973159790039
      ],
      [
        "▁બહાર",
        -9.969444274902344
      ],
      [
        "▁মাধ্যমে",
        -9.971028327941895
      ],
      [
        "ુ",
        -9.971872329711914
      ],
      [
        "▁good",
        -9.97227954864502
      ],
      [
        "▁करा",
        -9.972393989562988
      ],
      [
        "▁కాంగ్రెస్",
        -9.972869873046875
      ],
      [
        "ಂ",
        -9.972952842712402
      ],
      [
        "com",
        -9.9738130569458
      ],
      [
        "▁power",
        -9.974287033081055
      ],
      [
        "▁लिये",
        -9.974808692932129
      ],
      [
        "▁ਪ੍ਰਾਪਤ",
        -9.97490119934082
      ],
      [
        "▁ऑफ",
        -9.975136756896973
      ],
      [
        "▁সদস্য",
        -9.976141929626465
      ],
      [
        "য়ে",
        -9.976861953735352
      ],
      [
        "▁ਹਾਂ",
        -9.97694206237793
      ],
      [
        "ିତ",
        -9.977616310119629
      ],
      [
        "▁রহমান",
        -9.97764778137207
      ],
      [
        "▁Kumar",
        -9.97824764251709
      ],
      [
        "▁વચ્ચે",
        -9.978727340698242
      ],
      [
        "▁ਸਿੱਖ",
        -9.978981018066406
      ],
      [
        "ೋ",
        -9.979103088378906
      ],
      [
        "▁ਦਲ",
        -9.979299545288086
      ],
      [
        "▁৪",
        -9.98011302947998
      ],
      [
        "▁সালে",
        -9.980281829833984
      ],
      [
        "▁बीजेपी",
        -9.98054027557373
      ],
      [
        "వి",
        -9.980908393859863
      ],
      [
        "▁હાથ",
        -9.981005668640137
      ],
      [
        "▁सूचना",
        -9.981029510498047
      ],
      [
        "▁Saturday",
        -9.981101036071777
      ],
      [
        "▁इस्तेमाल",
        -9.981474876403809
      ],
      [
        "▁કેવી",
        -9.9815092086792
      ],
      [
        "▁04",
        -9.981710433959961
      ],
      [
        "▁प्रतिशत",
        -9.981968879699707
      ],
      [
        "ీ",
        -9.982230186462402
      ],
      [
        "▁भूमिका",
        -9.982522010803223
      ],
      [
        "▁જરૂરી",
        -9.98273754119873
      ],
      [
        "▁মানুষের",
        -9.982983589172363
      ],
      [
        "पुर",
        -9.984813690185547
      ],
      [
        "ಿದ್ದು",
        -9.985350608825684
      ],
      [
        "▁पक्ष",
        -9.985727310180664
      ],
      [
        "▁এবার",
        -9.986075401306152
      ],
      [
        "▁ಇ",
        -9.98669147491455
      ],
      [
        "লে",
        -9.987927436828613
      ],
      [
        "▁म",
        -9.98858642578125
      ],
      [
        "▁કરશે",
        -9.988892555236816
      ],
      [
        "▁தலைவர்",
        -9.989194869995117
      ],
      [
        "ಿತ್ತು",
        -9.989233016967773
      ],
      [
        "▁তথ্য",
        -9.989418029785156
      ],
      [
        "▁മുഖ്യമന്ത്രി",
        -9.990314483642578
      ],
      [
        "லாம்",
        -9.99044132232666
      ],
      [
        "▁ని",
        -9.9906005859375
      ],
      [
        "▁months",
        -9.99199104309082
      ],
      [
        "▁বলা",
        -9.9921293258667
      ],
      [
        "▁सुबह",
        -9.992936134338379
      ],
      [
        "▁ਰੂਪ",
        -9.993138313293457
      ],
      [
        "▁हत्या",
        -9.99353313446045
      ],
      [
        "▁போன்ற",
        -9.993959426879883
      ],
      [
        "ਈ",
        -9.994210243225098
      ],
      [
        "▁କରିଛନ୍ତି",
        -9.994361877441406
      ],
      [
        "▁लाभ",
        -9.99448299407959
      ],
      [
        "▁આવ્યું",
        -9.99476146697998
      ],
      [
        "▁those",
        -9.994928359985352
      ],
      [
        "▁રહે",
        -9.9949369430542
      ],
      [
        "▁धर्म",
        -9.995367050170898
      ],
      [
        "▁તેમજ",
        -9.995977401733398
      ],
      [
        "▁നൽകിയ",
        -9.997135162353516
      ],
      [
        "▁meeting",
        -9.997364044189453
      ],
      [
        "▁करणे",
        -9.998189926147461
      ],
      [
        "▁ಅನೇಕ",
        -9.998757362365723
      ],
      [
        "▁Jul",
        -9.999131202697754
      ],
      [
        "▁കൊണ്ട്",
        -9.999309539794922
      ],
      [
        "▁जिससे",
        -9.999618530273438
      ],
      [
        "▁political",
        -9.999951362609863
      ],
      [
        "તી",
        -10.000740051269531
      ],
      [
        "▁तयार",
        -10.000792503356934
      ],
      [
        "▁करू",
        -10.001219749450684
      ],
      [
        "▁पत्नी",
        -10.001941680908203
      ],
      [
        "▁ବେଳେ",
        -10.00216293334961
      ],
      [
        "▁public",
        -10.002490043640137
      ],
      [
        "▁Jun",
        -10.002756118774414
      ],
      [
        "▁വേണ്ടി",
        -10.003339767456055
      ],
      [
        "ക",
        -10.003381729125977
      ],
      [
        "▁తరువాత",
        -10.003509521484375
      ],
      [
        "▁ന്ന",
        -10.004207611083984
      ],
      [
        "▁Sunday",
        -10.004242897033691
      ],
      [
        "▁হোসেন",
        -10.004507064819336
      ],
      [
        "▁असेल",
        -10.004748344421387
      ],
      [
        "▁കോടതി",
        -10.005009651184082
      ],
      [
        "▁जाएगी",
        -10.005644798278809
      ],
      [
        "सी",
        -10.006200790405273
      ],
      [
        "▁केवल",
        -10.006210327148438
      ],
      [
        "▁number",
        -10.006348609924316
      ],
      [
        "▁আবার",
        -10.007360458374023
      ],
      [
        "▁both",
        -10.007614135742188
      ],
      [
        "▁જેમ",
        -10.007816314697266
      ],
      [
        "ीत",
        -10.007905006408691
      ],
      [
        "▁പറയുന്നു",
        -10.009156227111816
      ],
      [
        "▁प्रयत्न",
        -10.0093355178833
      ],
      [
        "▁ନ",
        -10.009645462036133
      ],
      [
        "▁કરતાં",
        -10.009781837463379
      ],
      [
        "▁ഒ",
        -10.010205268859863
      ],
      [
        "▁स्थिति",
        -10.0105619430542
      ],
      [
        "▁held",
        -10.010660171508789
      ],
      [
        "▁प्रश्न",
        -10.011109352111816
      ],
      [
        "▁ਸਰਕਾਰੀ",
        -10.011515617370605
      ],
      [
        "▁विजय",
        -10.012232780456543
      ],
      [
        "▁द",
        -10.012445449829102
      ],
      [
        "▁কারণে",
        -10.012468338012695
      ],
      [
        "▁ध्यान",
        -10.012874603271484
      ],
      [
        "த்து",
        -10.013181686401367
      ],
      [
        "▁Khan",
        -10.013228416442871
      ],
      [
        "▁ঘটনা",
        -10.013744354248047
      ],
      [
        "▁जिले",
        -10.014373779296875
      ],
      [
        "▁అన్నారు",
        -10.014466285705566
      ],
      [
        "▁చేసి",
        -10.014670372009277
      ],
      [
        "ઝ",
        -10.014735221862793
      ],
      [
        "▁ఉంటే",
        -10.01498794555664
      ],
      [
        "able",
        -10.015554428100586
      ],
      [
        "▁ദിവസം",
        -10.015706062316895
      ],
      [
        "ില്",
        -10.015719413757324
      ],
      [
        "ু",
        -10.015951156616211
      ],
      [
        "▁same",
        -10.016185760498047
      ],
      [
        "▁പ്ര",
        -10.016845703125
      ],
      [
        "▁ಹೇಗೆ",
        -10.016853332519531
      ],
      [
        "▁দেন",
        -10.017476081848145
      ],
      [
        "▁ત્રણ",
        -10.017735481262207
      ],
      [
        "ಟ್",
        -10.018126487731934
      ],
      [
        "ுடன்",
        -10.018163681030273
      ],
      [
        "year",
        -10.018221855163574
      ],
      [
        "▁நாம்",
        -10.018729209899902
      ],
      [
        "ील",
        -10.018839836120605
      ],
      [
        "▁दिला",
        -10.018945693969727
      ],
      [
        "▁ഇന്ത്യ",
        -10.019037246704102
      ],
      [
        "▁આવશે",
        -10.01905632019043
      ],
      [
        "|",
        -10.019618034362793
      ],
      [
        "மா",
        -10.01971435546875
      ],
      [
        "▁ਲੋੜ",
        -10.020545959472656
      ],
      [
        "▁जल",
        -10.020758628845215
      ],
      [
        "▁चीन",
        -10.021288871765137
      ],
      [
        "▁उपस्थित",
        -10.021452903747559
      ],
      [
        "▁ಸರ್ಕಾರ",
        -10.021750450134277
      ],
      [
        "▁हाल",
        -10.022870063781738
      ],
      [
        "]",
        -10.023791313171387
      ],
      [
        "▁বিষয়ে",
        -10.024262428283691
      ],
      [
        "▁U",
        -10.024368286132812
      ],
      [
        "▁સરકાર",
        -10.024458885192871
      ],
      [
        "▁ಆದ್ದರಿಂದ",
        -10.024606704711914
      ],
      [
        "▁દૂર",
        -10.02462100982666
      ],
      [
        "▁National",
        -10.02508544921875
      ],
      [
        "▁बजे",
        -10.025495529174805
      ],
      [
        "▁much",
        -10.026113510131836
      ],
      [
        "▁നിങ്ങളുടെ",
        -10.02649211883545
      ],
      [
        "▁বেশ",
        -10.026947021484375
      ],
      [
        "▁થી",
        -10.027580261230469
      ],
      [
        "▁पूरे",
        -10.027732849121094
      ],
      [
        "▁मला",
        -10.028298377990723
      ],
      [
        "▁मामला",
        -10.028651237487793
      ],
      [
        "▁ಗೆ",
        -10.028861045837402
      ],
      [
        "▁അവരുടെ",
        -10.02889347076416
      ],
      [
        "▁हमें",
        -10.029031753540039
      ],
      [
        "▁घोषणा",
        -10.029091835021973
      ],
      [
        "▁03",
        -10.029356002807617
      ],
      [
        "▁ക്ക്",
        -10.029730796813965
      ],
      [
        "▁அல்லது",
        -10.02974796295166
      ],
      [
        "শ",
        -10.02979564666748
      ],
      [
        "▁আওয়ামী",
        -10.02999210357666
      ],
      [
        "▁खर्च",
        -10.030121803283691
      ],
      [
        "▁महीने",
        -10.030513763427734
      ],
      [
        "▁একজন",
        -10.030683517456055
      ],
      [
        "▁આપે",
        -10.031081199645996
      ],
      [
        "▁అతను",
        -10.031437873840332
      ],
      [
        "▁వద్ద",
        -10.031614303588867
      ],
      [
        "▁ਵਿਅਕਤੀ",
        -10.031869888305664
      ],
      [
        "▁लाल",
        -10.0326566696167
      ],
      [
        "▁మరింత",
        -10.032793045043945
      ],
      [
        "▁सदस्य",
        -10.03281021118164
      ],
      [
        "▁होना",
        -10.033501625061035
      ],
      [
        "▁बदल",
        -10.034466743469238
      ],
      [
        "▁कुल",
        -10.035048484802246
      ],
      [
        "▁सांगितले",
        -10.035571098327637
      ],
      [
        "ులు",
        -10.035815238952637
      ],
      [
        "old",
        -10.035911560058594
      ],
      [
        "▁taken",
        -10.036433219909668
      ],
      [
        "ಯೂ",
        -10.036625862121582
      ],
      [
        "டி",
        -10.036725044250488
      ],
      [
        "▁पाणी",
        -10.037026405334473
      ],
      [
        "പ്പോൾ",
        -10.037355422973633
      ],
      [
        "▁five",
        -10.03740406036377
      ],
      [
        "▁’’",
        -10.037557601928711
      ],
      [
        "▁எந்த",
        -10.037690162658691
      ],
      [
        "ிய",
        -10.037697792053223
      ],
      [
        "▁ಡಾ",
        -10.039111137390137
      ],
      [
        "ట్",
        -10.039163589477539
      ],
      [
        "▁উপজেলা",
        -10.03979206085205
      ],
      [
        "ിലേക്ക്",
        -10.039953231811523
      ],
      [
        "▁ਵਿਦਿਆਰਥੀਆਂ",
        -10.040407180786133
      ],
      [
        "▁చెందిన",
        -10.04076862335205
      ],
      [
        "▁report",
        -10.041007041931152
      ],
      [
        "തും",
        -10.041104316711426
      ],
      [
        "▁ਸ਼ਾਮਲ",
        -10.041407585144043
      ],
      [
        "▁फोटो",
        -10.041418075561523
      ],
      [
        "ং",
        -10.041471481323242
      ],
      [
        "▁ಕನ್ನಡ",
        -10.042054176330566
      ],
      [
        "▁ફિલ્મ",
        -10.042135238647461
      ],
      [
        "▁મોટા",
        -10.042401313781738
      ],
      [
        "▁পাওয়া",
        -10.042649269104004
      ],
      [
        "க்க",
        -10.042922019958496
      ],
      [
        "▁90",
        -10.044001579284668
      ],
      [
        "▁ബിജെപി",
        -10.044425010681152
      ],
      [
        "▁second",
        -10.04443359375
      ],
      [
        "▁ಅದನ್ನು",
        -10.04457950592041
      ],
      [
        "ଟି",
        -10.044951438903809
      ],
      [
        "▁ਵਿਕਾਸ",
        -10.044971466064453
      ],
      [
        "▁செய்த",
        -10.04499626159668
      ],
      [
        "ുകയായിരുന്നു",
        -10.045145988464355
      ],
      [
        "▁कोशिश",
        -10.04593276977539
      ],
      [
        "▁அதன்",
        -10.046414375305176
      ],
      [
        "ीय",
        -10.046879768371582
      ],
      [
        "▁ই",
        -10.04688835144043
      ],
      [
        "▁45",
        -10.047718048095703
      ],
      [
        "▁কৰে",
        -10.049592971801758
      ],
      [
        "▁असल्याचे",
        -10.049691200256348
      ],
      [
        "▁പോലെ",
        -10.049919128417969
      ],
      [
        "▁मैंने",
        -10.050448417663574
      ],
      [
        "▁చిత్రం",
        -10.05070972442627
      ],
      [
        "▁संबंध",
        -10.051218032836914
      ],
      [
        "▁ದಿನ",
        -10.051896095275879
      ],
      [
        "▁വഴി",
        -10.05191421508789
      ],
      [
        "▁ਪੱਤਰ",
        -10.05263614654541
      ],
      [
        "▁इतर",
        -10.0528564453125
      ],
      [
        "▁home",
        -10.052921295166016
      ],
      [
        "▁বলেছেন",
        -10.052956581115723
      ],
      [
        "▁स्पष्ट",
        -10.053173065185547
      ],
      [
        "ନ",
        -10.05370044708252
      ],
      [
        "▁যেন",
        -10.053938865661621
      ],
      [
        "▁రాష్ట్ర",
        -10.054059028625488
      ],
      [
        "▁खेल",
        -10.05432415008545
      ],
      [
        "▁കാരണം",
        -10.054338455200195
      ],
      [
        "ांचे",
        -10.054755210876465
      ],
      [
        "▁जनवरी",
        -10.054967880249023
      ],
      [
        "B",
        -10.055233001708984
      ],
      [
        "▁विविध",
        -10.05572509765625
      ],
      [
        "లోని",
        -10.056827545166016
      ],
      [
        "▁ಅವರಿಗೆ",
        -10.057292938232422
      ],
      [
        "▁নেতা",
        -10.057709693908691
      ],
      [
        "▁ഇന്ന്",
        -10.058186531066895
      ],
      [
        "चं",
        -10.05836296081543
      ],
      [
        "▁വീണ്ടും",
        -10.058600425720215
      ],
      [
        "▁कैसे",
        -10.058693885803223
      ],
      [
        "▁తెలంగాణ",
        -10.059503555297852
      ],
      [
        "▁ક",
        -10.060404777526855
      ],
      [
        "▁city",
        -10.06088638305664
      ],
      [
        "▁শুধু",
        -10.061152458190918
      ],
      [
        "▁World",
        -10.062753677368164
      ],
      [
        "▁തുടർന്ന്",
        -10.0630464553833
      ],
      [
        "▁ಮುಖ್ಯ",
        -10.063127517700195
      ],
      [
        "▁નામ",
        -10.063153266906738
      ],
      [
        "▁प्रक्रिया",
        -10.063271522521973
      ],
      [
        "▁long",
        -10.063276290893555
      ],
      [
        "on",
        -10.063323020935059
      ],
      [
        "્યા",
        -10.063766479492188
      ],
      [
        "▁02",
        -10.063789367675781
      ],
      [
        "▁व्यवस्था",
        -10.063880920410156
      ],
      [
        "C",
        -10.064369201660156
      ],
      [
        "▁येत",
        -10.064448356628418
      ],
      [
        "▁परिणाम",
        -10.064472198486328
      ],
      [
        "ట",
        -10.064496994018555
      ],
      [
        "▁કર્યા",
        -10.064669609069824
      ],
      [
        "▁ബ",
        -10.065010070800781
      ],
      [
        "▁आरोपी",
        -10.065186500549316
      ],
      [
        "▁परीक्षा",
        -10.065276145935059
      ],
      [
        "▁जाना",
        -10.06542682647705
      ],
      [
        "▁നടന്ന",
        -10.065442085266113
      ],
      [
        "▁पाटील",
        -10.065567016601562
      ],
      [
        "▁de",
        -10.065642356872559
      ],
      [
        "ాలని",
        -10.065653800964355
      ],
      [
        "▁কোটি",
        -10.065958976745605
      ],
      [
        "▁उसका",
        -10.066777229309082
      ],
      [
        "K",
        -10.067794799804688
      ],
      [
        "▁चुके",
        -10.068676948547363
      ],
      [
        "▁চলে",
        -10.06889820098877
      ],
      [
        "▁ਬਾਹਰ",
        -10.069195747375488
      ],
      [
        "પ",
        -10.069273948669434
      ],
      [
        "▁இரண்டு",
        -10.069609642028809
      ],
      [
        "▁ଏ",
        -10.07027530670166
      ],
      [
        "▁former",
        -10.07050895690918
      ],
      [
        "▁अधिकारियों",
        -10.070725440979004
      ],
      [
        "▁ਤਿੰਨ",
        -10.071276664733887
      ],
      [
        "▁বাংলাদেশের",
        -10.071513175964355
      ],
      [
        "am",
        -10.072035789489746
      ],
      [
        "▁ರೂ",
        -10.072354316711426
      ],
      [
        "▁৬",
        -10.072675704956055
      ],
      [
        "▁family",
        -10.074540138244629
      ],
      [
        "▁leader",
        -10.074690818786621
      ],
      [
        "വ",
        -10.075937271118164
      ],
      [
        "▁ग",
        -10.076210975646973
      ],
      [
        "ਜ",
        -10.076539039611816
      ],
      [
        "▁सोशल",
        -10.0766019821167
      ],
      [
        "▁అదే",
        -10.076862335205078
      ],
      [
        "▁அரசியல்",
        -10.077190399169922
      ],
      [
        "▁फक्त",
        -10.078226089477539
      ],
      [
        "▁too",
        -10.078539848327637
      ],
      [
        "▁પોતાની",
        -10.078851699829102
      ],
      [
        "▁இலங்கை",
        -10.0792818069458
      ],
      [
        "का",
        -10.079731941223145
      ],
      [
        "জ",
        -10.080770492553711
      ],
      [
        "▁ഹ",
        -10.081002235412598
      ],
      [
        "▁ಸಂದರ್ಭದಲ್ಲಿ",
        -10.081117630004883
      ],
      [
        "▁मौके",
        -10.081384658813477
      ],
      [
        "▁अमेरिका",
        -10.082133293151855
      ],
      [
        "▁ଆ",
        -10.082137107849121
      ],
      [
        "▁પહેલા",
        -10.082292556762695
      ],
      [
        "▁ਮੈਂ",
        -10.082393646240234
      ],
      [
        "ಸಿ",
        -10.08275032043457
      ],
      [
        "▁ప్రధాన",
        -10.083024978637695
      ],
      [
        "▁మంత్రి",
        -10.083028793334961
      ],
      [
        "▁ਭਾਰਤੀ",
        -10.083218574523926
      ],
      [
        "▁হাতে",
        -10.083561897277832
      ],
      [
        "▁ഗ",
        -10.084686279296875
      ],
      [
        "▁ജെ",
        -10.084944725036621
      ],
      [
        "▁ಎಲ್ಲ",
        -10.08522891998291
      ],
      [
        "ভাবে",
        -10.085233688354492
      ],
      [
        "ासाठी",
        -10.085384368896484
      ],
      [
        "▁आम्ही",
        -10.086282730102539
      ],
      [
        "▁खास",
        -10.086406707763672
      ],
      [
        "▁O",
        -10.087738037109375
      ],
      [
        "▁మొదటి",
        -10.088692665100098
      ],
      [
        "▁हाथ",
        -10.088968276977539
      ],
      [
        "▁সেখানে",
        -10.089011192321777
      ],
      [
        "▁संबंधित",
        -10.089038848876953
      ],
      [
        "డ్",
        -10.089274406433105
      ],
      [
        "▁নির্বাচন",
        -10.089418411254883
      ],
      [
        "▁water",
        -10.090096473693848
      ],
      [
        "▁ಇಲ್ಲಿ",
        -10.090206146240234
      ],
      [
        "▁ঘোষণা",
        -10.090397834777832
      ],
      [
        "▁शरीर",
        -10.090529441833496
      ],
      [
        "▁शादी",
        -10.090657234191895
      ],
      [
        "▁help",
        -10.090781211853027
      ],
      [
        "શે",
        -10.090898513793945
      ],
      [
        "▁यही",
        -10.091142654418945
      ],
      [
        "ग",
        -10.091609001159668
      ],
      [
        "▁పై",
        -10.091767311096191
      ],
      [
        "▁वर",
        -10.091943740844727
      ],
      [
        "▁ಸ",
        -10.092269897460938
      ],
      [
        "▁ভালো",
        -10.092440605163574
      ],
      [
        "▁मार्च",
        -10.092506408691406
      ],
      [
        "▁news",
        -10.092557907104492
      ],
      [
        "▁ಮಾಡುವ",
        -10.092791557312012
      ],
      [
        "▁பெரிய",
        -10.09295654296875
      ],
      [
        "▁ટકા",
        -10.092981338500977
      ],
      [
        "▁बी",
        -10.094242095947266
      ],
      [
        "▁ಮಾಹಿತಿ",
        -10.094348907470703
      ],
      [
        "▁সামনে",
        -10.094707489013672
      ],
      [
        "▁ಪಿ",
        -10.094711303710938
      ],
      [
        "वी",
        -10.094715118408203
      ],
      [
        "▁சென்னை",
        -10.09519100189209
      ],
      [
        "▁केंद्रीय",
        -10.095280647277832
      ],
      [
        "▁लगे",
        -10.095390319824219
      ],
      [
        "▁She",
        -10.095723152160645
      ],
      [
        "▁ആർ",
        -10.09666633605957
      ],
      [
        "▁चुकी",
        -10.096761703491211
      ],
      [
        "▁32",
        -10.096977233886719
      ],
      [
        "▁ਬਣਾਉਣ",
        -10.097036361694336
      ],
      [
        "▁స",
        -10.097492218017578
      ],
      [
        "▁ਟੀਮ",
        -10.098389625549316
      ],
      [
        "▁ప్రత్యేక",
        -10.098530769348145
      ],
      [
        "▁அவரது",
        -10.09877872467041
      ],
      [
        "ുമ്പോൾ",
        -10.098980903625488
      ],
      [
        "த்த",
        -10.099202156066895
      ],
      [
        "▁ഉ",
        -10.099418640136719
      ],
      [
        "▁ଏହା",
        -10.099465370178223
      ],
      [
        "▁see",
        -10.099714279174805
      ],
      [
        "▁असं",
        -10.099802017211914
      ],
      [
        "▁दूसरी",
        -10.099950790405273
      ],
      [
        "▁ਇਲਾਵਾ",
        -10.10068130493164
      ],
      [
        "▁ರ",
        -10.101113319396973
      ],
      [
        "▁ಇತರ",
        -10.10175609588623
      ],
      [
        "ಿತು",
        -10.10269832611084
      ],
      [
        "▁২০",
        -10.10291576385498
      ],
      [
        "▁কেন",
        -10.102970123291016
      ],
      [
        "▁കോൺഗ്രസ്",
        -10.103615760803223
      ],
      [
        "▁ফলে",
        -10.103875160217285
      ],
      [
        "▁অনুষ্ঠিত",
        -10.104500770568848
      ],
      [
        "▁क्यों",
        -10.106450080871582
      ],
      [
        "നെ",
        -10.107006072998047
      ],
      [
        "▁ಅಧ್ಯಕ್ಷ",
        -10.107234001159668
      ],
      [
        "▁தன்",
        -10.107257843017578
      ],
      [
        "▁চেষ্টা",
        -10.107307434082031
      ],
      [
        "ಯು",
        -10.107328414916992
      ],
      [
        "▁হওয়ার",
        -10.107379913330078
      ],
      [
        "▁होंगे",
        -10.10754108428955
      ],
      [
        "▁মে",
        -10.107900619506836
      ],
      [
        "▁ഇവിടെ",
        -10.109684944152832
      ],
      [
        "G",
        -10.109935760498047
      ],
      [
        "▁കേന്ദ്ര",
        -10.110249519348145
      ],
      [
        "l",
        -10.110433578491211
      ],
      [
        "7",
        -10.110871315002441
      ],
      [
        "▁अस्पताल",
        -10.110984802246094
      ],
      [
        "▁എന്റെ",
        -10.111099243164062
      ],
      [
        "▁ਆਪ",
        -10.111538887023926
      ],
      [
        "▁प्रवेश",
        -10.112018585205078
      ],
      [
        "▁যখন",
        -10.112221717834473
      ],
      [
        "▁Apr",
        -10.112384796142578
      ],
      [
        "▁പ്രധാന",
        -10.112540245056152
      ],
      [
        "▁ಆರ್",
        -10.11290454864502
      ],
      [
        "▁दाखल",
        -10.113263130187988
      ],
      [
        "▁ಎಂ",
        -10.113412857055664
      ],
      [
        "▁പോലും",
        -10.113594055175781
      ],
      [
        "▁त्याला",
        -10.11363697052002
      ],
      [
        "▁गंभीर",
        -10.113694190979004
      ],
      [
        "▁asked",
        -10.113912582397461
      ],
      [
        "ാനുള്ള",
        -10.113926887512207
      ],
      [
        "▁ਕੋਲ",
        -10.115129470825195
      ],
      [
        "▁മികച്ച",
        -10.115581512451172
      ],
      [
        "▁নি",
        -10.116897583007812
      ],
      [
        "k",
        -10.116914749145508
      ],
      [
        "▁issue",
        -10.117032051086426
      ],
      [
        "डी",
        -10.117165565490723
      ],
      [
        "▁If",
        -10.117794036865234
      ],
      [
        "▁officials",
        -10.11795711517334
      ],
      [
        "▁Court",
        -10.1182222366333
      ],
      [
        "യില്",
        -10.118463516235352
      ],
      [
        "▁તથા",
        -10.11875057220459
      ],
      [
        "▁ਦਰਜ",
        -10.118752479553223
      ],
      [
        "▁बयान",
        -10.119283676147461
      ],
      [
        "▁मार्ग",
        -10.11945629119873
      ],
      [
        "▁வருகிறது",
        -10.120207786560059
      ],
      [
        "▁আপনি",
        -10.120320320129395
      ],
      [
        "▁વ્યક્તિ",
        -10.120585441589355
      ],
      [
        "ൺ",
        -10.120710372924805
      ],
      [
        "▁व्यक्त",
        -10.121005058288574
      ],
      [
        "▁উপস্থিত",
        -10.121053695678711
      ],
      [
        "▁વિવિધ",
        -10.12114429473877
      ],
      [
        "▁কম",
        -10.121346473693848
      ],
      [
        "▁രണ്ടു",
        -10.121500015258789
      ],
      [
        "▁दिले",
        -10.121522903442383
      ],
      [
        "ies",
        -10.12159252166748
      ],
      [
        "▁ಇಂದು",
        -10.121869087219238
      ],
      [
        "▁गयी",
        -10.12197494506836
      ],
      [
        "ேன்",
        -10.12264633178711
      ],
      [
        "യോ",
        -10.12272834777832
      ],
      [
        "▁लागू",
        -10.12325668334961
      ],
      [
        "▁റ",
        -10.123469352722168
      ],
      [
        "▁நல்ல",
        -10.123481750488281
      ],
      [
        "▁ന്",
        -10.123685836791992
      ],
      [
        "ட்",
        -10.12374210357666
      ],
      [
        "▁સ",
        -10.124153137207031
      ],
      [
        "▁ఇక",
        -10.124435424804688
      ],
      [
        "▁সহ",
        -10.124710083007812
      ],
      [
        "▁ਬੀ",
        -10.12509536743164
      ],
      [
        "▁ତେବେ",
        -10.125229835510254
      ],
      [
        "ಲ್ಲ",
        -10.125242233276367
      ],
      [
        "▁प्र",
        -10.126230239868164
      ],
      [
        "વું",
        -10.126256942749023
      ],
      [
        "▁அதை",
        -10.126384735107422
      ],
      [
        "▁रखा",
        -10.126688957214355
      ],
      [
        "▁टी",
        -10.127903938293457
      ],
      [
        "▁சேர்ந்த",
        -10.127992630004883
      ],
      [
        "▁media",
        -10.128631591796875
      ],
      [
        "▁चाहते",
        -10.12895679473877
      ],
      [
        "ಡ್",
        -10.129082679748535
      ],
      [
        "▁So",
        -10.129433631896973
      ],
      [
        "ക്കു",
        -10.129518508911133
      ],
      [
        "▁place",
        -10.129902839660645
      ],
      [
        "ేందుకు",
        -10.130305290222168
      ],
      [
        "▁બંધ",
        -10.13057804107666
      ],
      [
        "▁सेना",
        -10.13100814819336
      ],
      [
        "▁due",
        -10.131068229675293
      ],
      [
        "▁ಹಿಂದೆ",
        -10.13121223449707
      ],
      [
        "▁ఏర్పాటు",
        -10.131230354309082
      ],
      [
        "▁নিজস্ব",
        -10.132002830505371
      ],
      [
        "▁થશે",
        -10.132002830505371
      ],
      [
        "▁క",
        -10.132363319396973
      ],
      [
        "▁കാ",
        -10.132606506347656
      ],
      [
        "▁મોદી",
        -10.132732391357422
      ],
      [
        "താണ്",
        -10.133072853088379
      ],
      [
        "द",
        -10.133390426635742
      ],
      [
        "▁ਲੱਖ",
        -10.133432388305664
      ],
      [
        "▁প্রকাশ",
        -10.134559631347656
      ],
      [
        "▁लगातार",
        -10.134590148925781
      ],
      [
        "▁given",
        -10.13488483428955
      ],
      [
        "▁ਬੱਚਿਆਂ",
        -10.135093688964844
      ],
      [
        "▁മന്ത്രി",
        -10.135226249694824
      ],
      [
        "িং",
        -10.135294914245605
      ],
      [
        "▁పూర్తి",
        -10.136497497558594
      ],
      [
        "▁మ",
        -10.136696815490723
      ],
      [
        "▁பின்னர்",
        -10.13687515258789
      ],
      [
        "ਏ",
        -10.138020515441895
      ],
      [
        "▁official",
        -10.138372421264648
      ],
      [
        "▁উপজেলার",
        -10.138476371765137
      ],
      [
        "▁சென்று",
        -10.13865852355957
      ],
      [
        "లతో",
        -10.138958930969238
      ],
      [
        "▁took",
        -10.139402389526367
      ],
      [
        "▁across",
        -10.13952922821045
      ],
      [
        "▁प",
        -10.139555931091309
      ],
      [
        "மே",
        -10.1404447555542
      ],
      [
        "g",
        -10.141140937805176
      ],
      [
        "▁ஏ",
        -10.141542434692383
      ],
      [
        "தாக",
        -10.141658782958984
      ],
      [
        "▁प्रशासन",
        -10.141851425170898
      ],
      [
        "ുണ്ട്",
        -10.141887664794922
      ],
      [
        "യായി",
        -10.142066955566406
      ],
      [
        "▁પસંદ",
        -10.142125129699707
      ],
      [
        "▁ব্যবহার",
        -10.142232894897461
      ],
      [
        "6",
        -10.14303970336914
      ],
      [
        "▁लगभग",
        -10.143646240234375
      ],
      [
        "▁top",
        -10.143851280212402
      ],
      [
        "▁And",
        -10.143878936767578
      ],
      [
        "▁২০১৮",
        -10.144049644470215
      ],
      [
        "▁बोर्ड",
        -10.14405632019043
      ],
      [
        "▁लगाया",
        -10.14408016204834
      ],
      [
        "▁ওপর",
        -10.144181251525879
      ],
      [
        "ਕੇ",
        -10.144182205200195
      ],
      [
        "▁நாள்",
        -10.144372940063477
      ],
      [
        "▁पी",
        -10.14445686340332
      ],
      [
        "▁दरम्यान",
        -10.144598960876465
      ],
      [
        "▁China",
        -10.144865989685059
      ],
      [
        "▁మూడు",
        -10.144867897033691
      ],
      [
        "▁नुकसान",
        -10.14504623413086
      ],
      [
        "▁થયો",
        -10.145371437072754
      ],
      [
        "જ",
        -10.145387649536133
      ],
      [
        "ುತ್ತಾರೆ",
        -10.145634651184082
      ],
      [
        "▁पैसे",
        -10.145766258239746
      ],
      [
        "▁మన",
        -10.145906448364258
      ],
      [
        "▁ರಲ್ಲಿ",
        -10.145949363708496
      ],
      [
        "▁सोमवार",
        -10.146079063415527
      ],
      [
        "▁লাখ",
        -10.146417617797852
      ],
      [
        "▁चलते",
        -10.146419525146484
      ],
      [
        "▁বছরের",
        -10.146480560302734
      ],
      [
        "▁बे",
        -10.1476469039917
      ],
      [
        "▁बल्कि",
        -10.1477689743042
      ],
      [
        "▁ಅವರನ್ನು",
        -10.14823055267334
      ],
      [
        "▁చేసింది",
        -10.148506164550781
      ],
      [
        "A",
        -10.149420738220215
      ],
      [
        "▁இதில்",
        -10.149648666381836
      ],
      [
        "క్",
        -10.149664878845215
      ],
      [
        "▁ಕಳೆದ",
        -10.15084457397461
      ],
      [
        "▁നല്ല",
        -10.15190601348877
      ],
      [
        "▁તેમ",
        -10.152746200561523
      ],
      [
        "▁দেশ",
        -10.152995109558105
      ],
      [
        "৷",
        -10.15318775177002
      ],
      [
        "ಡಿ",
        -10.153427124023438
      ],
      [
        "▁নামে",
        -10.153711318969727
      ],
      [
        "▁ਸਮੇਤ",
        -10.15395450592041
      ],
      [
        "▁હશે",
        -10.154197692871094
      ],
      [
        "▁बिना",
        -10.154426574707031
      ],
      [
        "▁তুলে",
        -10.154444694519043
      ],
      [
        "▁ಕಾಲ",
        -10.15479850769043
      ],
      [
        "▁कश्मीर",
        -10.155229568481445
      ],
      [
        "▁ವಿಶೇಷ",
        -10.155229568481445
      ],
      [
        "▁ਕਾਰਵਾਈ",
        -10.15562915802002
      ],
      [
        "ഡ്",
        -10.155712127685547
      ],
      [
        "▁ജ",
        -10.15597915649414
      ],
      [
        "▁सात",
        -10.156018257141113
      ],
      [
        "▁ಎಂದರು",
        -10.15638542175293
      ],
      [
        "▁every",
        -10.15646743774414
      ],
      [
        "▁ਅਗਵਾਈ",
        -10.156518936157227
      ],
      [
        "▁విషయం",
        -10.156953811645508
      ],
      [
        "▁2009",
        -10.157167434692383
      ],
      [
        "▁few",
        -10.157341957092285
      ],
      [
        "▁देख",
        -10.158037185668945
      ],
      [
        "▁ਪੂਰੀ",
        -10.158116340637207
      ],
      [
        "▁@",
        -10.158376693725586
      ],
      [
        "▁અંગે",
        -10.158699989318848
      ],
      [
        "▁ਸਾਬਕਾ",
        -10.159147262573242
      ],
      [
        "▁However",
        -10.159294128417969
      ],
      [
        "▁એમ",
        -10.160264015197754
      ],
      [
        "▁ಆಯ್ಕೆ",
        -10.16031551361084
      ],
      [
        "▁found",
        -10.160370826721191
      ],
      [
        "▁ಜೊತೆಗೆ",
        -10.160923957824707
      ],
      [
        "▁ਤਕ",
        -10.16120719909668
      ],
      [
        "ಿದ್ದರು",
        -10.161539077758789
      ],
      [
        "▁కి",
        -10.161617279052734
      ],
      [
        "ాలి",
        -10.16226863861084
      ],
      [
        "▁ਵਿਸ਼ੇਸ਼",
        -10.16246223449707
      ],
      [
        "M",
        -10.162787437438965
      ],
      [
        "▁देव",
        -10.162957191467285
      ],
      [
        "▁ଆଜି",
        -10.163480758666992
      ],
      [
        "▁হয়েছিল",
        -10.163509368896484
      ],
      [
        "▁नंबर",
        -10.163518905639648
      ],
      [
        "ਪ",
        -10.163853645324707
      ],
      [
        "▁Prime",
        -10.163986206054688
      ],
      [
        "▁এলাকায়",
        -10.164220809936523
      ],
      [
        "▁support",
        -10.164922714233398
      ],
      [
        "▁वि",
        -10.165493965148926
      ],
      [
        "ಕ್",
        -10.165834426879883
      ],
      [
        "▁another",
        -10.165950775146484
      ],
      [
        "▁করবে",
        -10.16617202758789
      ],
      [
        "▁दल",
        -10.166274070739746
      ],
      [
        "▁Police",
        -10.16667652130127
      ],
      [
        "▁ਪਿਛਲੇ",
        -10.166772842407227
      ],
      [
        "▁ನೀರು",
        -10.16702651977539
      ],
      [
        "▁ಚಿತ್ರ",
        -10.167328834533691
      ],
      [
        "▁যাচ্ছে",
        -10.168050765991211
      ],
      [
        "▁গেল",
        -10.168713569641113
      ],
      [
        "▁महिलाओं",
        -10.169121742248535
      ],
      [
        "વી",
        -10.169922828674316
      ],
      [
        "▁पुन्हा",
        -10.170028686523438
      ],
      [
        "ਨਾ",
        -10.170038223266602
      ],
      [
        "ாமல்",
        -10.170284271240234
      ],
      [
        "▁স্থানীয়",
        -10.170307159423828
      ],
      [
        "▁lakh",
        -10.17071533203125
      ],
      [
        "▁यात्रा",
        -10.170723915100098
      ],
      [
        "▁হলো",
        -10.171768188476562
      ],
      [
        "▁এসে",
        -10.17206859588623
      ],
      [
        "▁No",
        -10.172361373901367
      ],
      [
        "▁দেয়",
        -10.172428131103516
      ],
      [
        "ion",
        -10.172460556030273
      ],
      [
        "▁കൂടി",
        -10.173531532287598
      ],
      [
        "▁ಹೇಳಿದರು",
        -10.173611640930176
      ],
      [
        "एं",
        -10.174370765686035
      ],
      [
        "▁परंतु",
        -10.174705505371094
      ],
      [
        "ര",
        -10.174814224243164
      ],
      [
        "ಂತೆ",
        -10.17492389678955
      ],
      [
        "▁पिता",
        -10.175427436828613
      ],
      [
        "▁കഴിയും",
        -10.176095008850098
      ],
      [
        "▁अच्छा",
        -10.176230430603027
      ],
      [
        "लं",
        -10.176857948303223
      ],
      [
        "পুর",
        -10.176883697509766
      ],
      [
        "▁കേരള",
        -10.17795467376709
      ],
      [
        "▁দেশে",
        -10.178163528442383
      ],
      [
        "▁ব্যবস্থা",
        -10.178304672241211
      ],
      [
        "▁இரு",
        -10.178410530090332
      ],
      [
        "▁मौजूद",
        -10.178522109985352
      ],
      [
        "▁ಸಚಿವ",
        -10.178930282592773
      ],
      [
        "▁રહ્યો",
        -10.178946495056152
      ],
      [
        "▁ఎక్కువ",
        -10.17969799041748
      ],
      [
        "▁మొత్తం",
        -10.180212020874023
      ],
      [
        "കളുടെ",
        -10.18029499053955
      ],
      [
        "▁जून",
        -10.180484771728516
      ],
      [
        "▁ஆம்",
        -10.180617332458496
      ],
      [
        "▁बिहार",
        -10.180621147155762
      ],
      [
        "ु",
        -10.180628776550293
      ],
      [
        "▁নাই",
        -10.181559562683105
      ],
      [
        "కే",
        -10.181650161743164
      ],
      [
        "▁ਜਾਵੇ",
        -10.1818208694458
      ],
      [
        "▁market",
        -10.182256698608398
      ],
      [
        "▁among",
        -10.182524681091309
      ],
      [
        "▁সকালে",
        -10.182684898376465
      ],
      [
        "ങ്ങളുടെ",
        -10.183292388916016
      ],
      [
        "▁ಮೂರು",
        -10.183342933654785
      ],
      [
        "मधील",
        -10.183770179748535
      ],
      [
        "▁வைத்து",
        -10.18387222290039
      ],
      [
        "▁મુખ્ય",
        -10.184542655944824
      ],
      [
        "▁सही",
        -10.184563636779785
      ],
      [
        "ಲಿ",
        -10.184701919555664
      ],
      [
        "▁विषय",
        -10.184861183166504
      ],
      [
        "▁ਸਕੱਤਰ",
        -10.185114860534668
      ],
      [
        "▁ਅੰਦਰ",
        -10.185159683227539
      ],
      [
        "ity",
        -10.185497283935547
      ],
      [
        "ವರು",
        -10.185583114624023
      ],
      [
        "श",
        -10.185715675354004
      ],
      [
        "ோ",
        -10.185786247253418
      ],
      [
        "▁फैसला",
        -10.186104774475098
      ],
      [
        "െങ്കിലും",
        -10.186395645141602
      ],
      [
        "লৈ",
        -10.18664264678955
      ],
      [
        "▁చెప్పారు",
        -10.186917304992676
      ],
      [
        "▁ਪੰਜਾਬੀ",
        -10.187353134155273
      ],
      [
        "େ",
        -10.187372207641602
      ],
      [
        "▁পরের",
        -10.188176155090332
      ],
      [
        "▁১২",
        -10.18822956085205
      ],
      [
        "▁WhatsApp",
        -10.189377784729004
      ],
      [
        "ಿನ",
        -10.189409255981445
      ],
      [
        "▁ஐ",
        -10.189591407775879
      ],
      [
        "▁ਸੇਵਾ",
        -10.189714431762695
      ],
      [
        "▁सहित",
        -10.189861297607422
      ],
      [
        "▁बनाया",
        -10.190099716186523
      ],
      [
        "▁ਉਹਨਾਂ",
        -10.190165519714355
      ],
      [
        "▁area",
        -10.190486907958984
      ],
      [
        "▁आग",
        -10.190583229064941
      ],
      [
        "▁असते",
        -10.191012382507324
      ],
      [
        "▁पार",
        -10.191139221191406
      ],
      [
        "▁শিক্ষা",
        -10.191215515136719
      ],
      [
        "▁leaders",
        -10.191448211669922
      ],
      [
        "▁ई",
        -10.191483497619629
      ],
      [
        "सा",
        -10.191812515258789
      ],
      [
        "ರಲ್ಲಿ",
        -10.191949844360352
      ],
      [
        "▁देखा",
        -10.191972732543945
      ],
      [
        "▁used",
        -10.192007064819336
      ],
      [
        "▁विधायक",
        -10.192155838012695
      ],
      [
        "▁ಅತ್ಯಂತ",
        -10.192607879638672
      ],
      [
        "D",
        -10.192686080932617
      ],
      [
        "▁அமைச்சர்",
        -10.192960739135742
      ],
      [
        "▁হাত",
        -10.193126678466797
      ],
      [
        "▁हरियाणा",
        -10.193225860595703
      ],
      [
        "మ్",
        -10.193684577941895
      ],
      [
        "▁தேதி",
        -10.194278717041016
      ],
      [
        "▁பேர்",
        -10.194499969482422
      ],
      [
        "▁நேற்று",
        -10.194811820983887
      ],
      [
        "▁still",
        -10.196654319763184
      ],
      [
        "▁দেখে",
        -10.196734428405762
      ],
      [
        "▁order",
        -10.19676685333252
      ],
      [
        "▁വർഷം",
        -10.197098731994629
      ],
      [
        "ಪ್ಪ",
        -10.197187423706055
      ],
      [
        "▁पा",
        -10.197572708129883
      ],
      [
        "▁மீண்டும்",
        -10.197762489318848
      ],
      [
        "▁ഷ",
        -10.197872161865234
      ],
      [
        "▁ଥିବା",
        -10.197978973388672
      ],
      [
        "നും",
        -10.19800853729248
      ],
      [
        "▁मध्य",
        -10.198389053344727
      ],
      [
        "▁படம்",
        -10.19839096069336
      ],
      [
        "വർ",
        -10.198784828186035
      ],
      [
        "▁came",
        -10.19894790649414
      ],
      [
        "▁कहते",
        -10.19906997680664
      ],
      [
        "▁चुका",
        -10.199341773986816
      ],
      [
        "▁మాత్రం",
        -10.199624061584473
      ],
      [
        "పు",
        -10.200180053710938
      ],
      [
        "▁ਬੱਚੇ",
        -10.200716018676758
      ],
      [
        "▁ਸਮਾਗਮ",
        -10.201292037963867
      ],
      [
        "▁ঠিক",
        -10.201313972473145
      ],
      [
        "▁झालेल्या",
        -10.201491355895996
      ],
      [
        "▁வர",
        -10.201756477355957
      ],
      [
        "▁മു",
        -10.201775550842285
      ],
      [
        "ൾ",
        -10.201927185058594
      ],
      [
        "▁ലെ",
        -10.202285766601562
      ],
      [
        "▁शुक्रवार",
        -10.202808380126953
      ],
      [
        "▁ભાગ",
        -10.203082084655762
      ],
      [
        "▁ಕ",
        -10.203147888183594
      ],
      [
        "▁ਤਹਿਤ",
        -10.203169822692871
      ],
      [
        "▁આપવામાં",
        -10.203169822692871
      ],
      [
        "▁X",
        -10.203668594360352
      ],
      [
        "ங்களை",
        -10.203807830810547
      ],
      [
        "▁जवाब",
        -10.204080581665039
      ],
      [
        "▁ಬಾರಿ",
        -10.204297065734863
      ],
      [
        "▁ನಡೆದ",
        -10.205103874206543
      ],
      [
        "▁ವರ್ಷ",
        -10.205204963684082
      ],
      [
        "ਪਾਲ",
        -10.205262184143066
      ],
      [
        "▁১৫",
        -10.205334663391113
      ],
      [
        "મા",
        -10.205451011657715
      ],
      [
        "▁वरिष्ठ",
        -10.2059907913208
      ],
      [
        "▁PTI",
        -10.206396102905273
      ],
      [
        "▁வெற்றி",
        -10.206486701965332
      ],
      [
        "▁വിവിധ",
        -10.206801414489746
      ],
      [
        "▁ભારત",
        -10.20690631866455
      ],
      [
        "ମାନେ",
        -10.206924438476562
      ],
      [
        "▁ম",
        -10.206969261169434
      ],
      [
        "▁कार्रवाई",
        -10.207473754882812
      ],
      [
        "▁राशि",
        -10.207763671875
      ],
      [
        "T",
        -10.208080291748047
      ],
      [
        "▁ప",
        -10.208341598510742
      ],
      [
        "▁৭",
        -10.20854663848877
      ],
      [
        "▁पंजाब",
        -10.208738327026367
      ],
      [
        "▁विभिन्न",
        -10.209007263183594
      ],
      [
        "গুলো",
        -10.2094087600708
      ],
      [
        "ियां",
        -10.209453582763672
      ],
      [
        "த்திற்கு",
        -10.209513664245605
      ],
      [
        "▁मां",
        -10.209554672241211
      ],
      [
        "▁सु",
        -10.209769248962402
      ],
      [
        "▁পারেন",
        -10.210099220275879
      ],
      [
        "▁थीं",
        -10.210412979125977
      ],
      [
        "▁இதனால்",
        -10.210611343383789
      ],
      [
        "▁ভাল",
        -10.210756301879883
      ],
      [
        "▁একই",
        -10.210932731628418
      ],
      [
        "▁घेऊन",
        -10.211017608642578
      ],
      [
        "▁रविवार",
        -10.211090087890625
      ],
      [
        "▁p",
        -10.211797714233398
      ],
      [
        "5",
        -10.212607383728027
      ],
      [
        "▁ಆಗ",
        -10.212671279907227
      ],
      [
        "▁मेरी",
        -10.212717056274414
      ],
      [
        "▁प्रेम",
        -10.21275520324707
      ],
      [
        "▁எம்",
        -10.213391304016113
      ],
      [
        "▁നൽകി",
        -10.213460922241211
      ],
      [
        "▁ਹਾਜ਼ਰ",
        -10.213863372802734
      ],
      [
        "യായ",
        -10.214666366577148
      ],
      [
        "మే",
        -10.214757919311523
      ],
      [
        "▁चला",
        -10.215043067932129
      ],
      [
        "▁ਬਾਬਾ",
        -10.215161323547363
      ],
      [
        "▁Pradesh",
        -10.2156343460083
      ],
      [
        "ਲੇ",
        -10.21572208404541
      ],
      [
        "▁பற்றி",
        -10.216841697692871
      ],
      [
        "▁यावेळी",
        -10.216893196105957
      ],
      [
        "▁गेल्या",
        -10.217020034790039
      ],
      [
        "ਿਕ",
        -10.217552185058594
      ],
      [
        "▁भाषा",
        -10.217814445495605
      ],
      [
        "▁সরকারের",
        -10.217926025390625
      ],
      [
        "▁मिलने",
        -10.218033790588379
      ],
      [
        "▁man",
        -10.218192100524902
      ],
      [
        "சி",
        -10.21823787689209
      ],
      [
        "▁ਅਜਿਹੇ",
        -10.218393325805664
      ],
      [
        "▁एस",
        -10.219437599182129
      ],
      [
        "▁ਤਿਆਰ",
        -10.219799995422363
      ],
      [
        "▁విడుదల",
        -10.220222473144531
      ],
      [
        "▁300",
        -10.220415115356445
      ],
      [
        "▁ಪ್ರಮುಖ",
        -10.220561981201172
      ],
      [
        "▁ਪਤਾ",
        -10.220795631408691
      ],
      [
        "▁అలాగే",
        -10.220831871032715
      ],
      [
        "▁Whil",
        -10.220881462097168
      ],
      [
        "▁Gandhi",
        -10.22099781036377
      ],
      [
        "▁മുൻ",
        -10.221449851989746
      ],
      [
        "▁অংশ",
        -10.222977638244629
      ],
      [
        "▁બનાવવા",
        -10.223440170288086
      ],
      [
        "ിലും",
        -10.223615646362305
      ],
      [
        "▁पहुंच",
        -10.223709106445312
      ],
      [
        "▁खबर",
        -10.223957061767578
      ],
      [
        "ਿਤ",
        -10.224478721618652
      ],
      [
        "▁சி",
        -10.22469711303711
      ],
      [
        "▁અહીં",
        -10.224868774414062
      ],
      [
        "▁বাবে",
        -10.225346565246582
      ],
      [
        "▁own",
        -10.225726127624512
      ],
      [
        "▁उत्पादन",
        -10.225876808166504
      ],
      [
        "▁किसानों",
        -10.226028442382812
      ],
      [
        "▁बुधवार",
        -10.226394653320312
      ],
      [
        "▁आयोग",
        -10.226584434509277
      ],
      [
        "▁জানিয়েছেন",
        -10.226632118225098
      ],
      [
        "▁രു",
        -10.227519989013672
      ],
      [
        "▁million",
        -10.227560043334961
      ],
      [
        "▁आंदोलन",
        -10.227640151977539
      ],
      [
        "▁தமிழக",
        -10.227950096130371
      ],
      [
        "▁President",
        -10.228034019470215
      ],
      [
        "▁ਖੇਤਰ",
        -10.228260040283203
      ],
      [
        "▁different",
        -10.228432655334473
      ],
      [
        "▁आनंद",
        -10.228517532348633
      ],
      [
        "▁पोलीस",
        -10.228521347045898
      ],
      [
        "▁ਕਿਸਾਨਾਂ",
        -10.228612899780273
      ],
      [
        "फ",
        -10.228938102722168
      ],
      [
        "p",
        -10.22956371307373
      ],
      [
        "▁ਦੁਆਰਾ",
        -10.229728698730469
      ],
      [
        "▁వి",
        -10.229790687561035
      ],
      [
        "வில்லை",
        -10.230498313903809
      ],
      [
        "▁પહેલાં",
        -10.230823516845703
      ],
      [
        "▁ಜನ",
        -10.231557846069336
      ],
      [
        "▁जन्म",
        -10.231560707092285
      ],
      [
        "ండి",
        -10.231679916381836
      ],
      [
        "▁ജോലി",
        -10.231987953186035
      ],
      [
        "▁तेल",
        -10.232111930847168
      ],
      [
        "શ",
        -10.23232650756836
      ],
      [
        "িক",
        -10.233267784118652
      ],
      [
        "ൂ",
        -10.233342170715332
      ],
      [
        "▁ਪ",
        -10.233724594116211
      ],
      [
        "▁તૈયાર",
        -10.234855651855469
      ],
      [
        "▁ചിത്രം",
        -10.235428810119629
      ],
      [
        "▁security",
        -10.236349105834961
      ],
      [
        "▁शनिवार",
        -10.236397743225098
      ],
      [
        "▁କହିଛନ୍ତି",
        -10.23654556274414
      ],
      [
        "▁ਅਸੀਂ",
        -10.236676216125488
      ],
      [
        "யா",
        -10.236776351928711
      ],
      [
        "▁আরো",
        -10.236876487731934
      ],
      [
        "▁नाव",
        -10.237592697143555
      ],
      [
        "ನು",
        -10.238802909851074
      ],
      [
        "▁right",
        -10.239068984985352
      ],
      [
        "▁At",
        -10.239087104797363
      ],
      [
        "▁वर्ग",
        -10.239107131958008
      ],
      [
        "▁ಜೊತೆ",
        -10.23923397064209
      ],
      [
        "▁ಶ್ರೀ",
        -10.239346504211426
      ],
      [
        "▁രാഷ്ട്രീയ",
        -10.239490509033203
      ],
      [
        "▁అవకాశం",
        -10.240056037902832
      ],
      [
        "▁উত্তর",
        -10.240715980529785
      ],
      [
        "▁જ્યાં",
        -10.240737915039062
      ],
      [
        "▁टेस्ट",
        -10.241328239440918
      ],
      [
        "▁आयोजन",
        -10.24194622039795
      ],
      [
        "▁कल",
        -10.241952896118164
      ],
      [
        "▁ਸਿਰਫ",
        -10.242290496826172
      ],
      [
        "▁राष्ट्रपति",
        -10.242666244506836
      ],
      [
        "ക്ക",
        -10.242916107177734
      ],
      [
        "ಮ್",
        -10.243152618408203
      ],
      [
        "▁With",
        -10.24392032623291
      ],
      [
        "▁वापर",
        -10.244145393371582
      ],
      [
        "▁पीछे",
        -10.24439525604248
      ],
      [
        "▁યોગ્ય",
        -10.244634628295898
      ],
      [
        "જી",
        -10.244699478149414
      ],
      [
        "▁ਕਾਲਜ",
        -10.245440483093262
      ],
      [
        "▁നിരവധി",
        -10.245485305786133
      ],
      [
        "ણ",
        -10.245548248291016
      ],
      [
        "வர்கள்",
        -10.24556827545166
      ],
      [
        "▁కేవలం",
        -10.245701789855957
      ],
      [
        "ह",
        -10.246010780334473
      ],
      [
        "বে",
        -10.246214866638184
      ],
      [
        "ंग",
        -10.246797561645508
      ],
      [
        "▁business",
        -10.247138023376465
      ],
      [
        "▁use",
        -10.247191429138184
      ],
      [
        "▁ಸೇರಿದಂತೆ",
        -10.247401237487793
      ],
      [
        "▁उप",
        -10.24791145324707
      ],
      [
        "▁સમયે",
        -10.248237609863281
      ],
      [
        "▁பெண்",
        -10.248687744140625
      ],
      [
        "▁નવા",
        -10.248751640319824
      ],
      [
        "ക്",
        -10.248981475830078
      ],
      [
        "▁शिव",
        -10.24936580657959
      ],
      [
        "▁Jammu",
        -10.25027084350586
      ],
      [
        "▁मार",
        -10.250350952148438
      ],
      [
        "▁ఇక్కడ",
        -10.251248359680176
      ],
      [
        "▁रखने",
        -10.251672744750977
      ],
      [
        "▁Dr",
        -10.251775741577148
      ],
      [
        "▁देखील",
        -10.251811027526855
      ],
      [
        "▁ਦਿੱਤੇ",
        -10.251873970031738
      ],
      [
        "or",
        -10.252830505371094
      ],
      [
        "▁ਮਾਰਚ",
        -10.253150939941406
      ],
      [
        "▁become",
        -10.253177642822266
      ],
      [
        "▁post",
        -10.253602981567383
      ],
      [
        "িয়া",
        -10.25361442565918
      ],
      [
        "▁যেতে",
        -10.253641128540039
      ],
      [
        "▁सध्या",
        -10.25383186340332
      ],
      [
        "man",
        -10.2542142868042
      ],
      [
        "▁लगी",
        -10.2544584274292
      ],
      [
        "9",
        -10.254685401916504
      ],
      [
        "▁देखने",
        -10.254925727844238
      ],
      [
        "▁150",
        -10.255195617675781
      ],
      [
        "▁देण्यात",
        -10.255301475524902
      ],
      [
        "▁लगता",
        -10.255443572998047
      ],
      [
        "▁बढ़",
        -10.25557804107666
      ],
      [
        "▁એટલે",
        -10.255659103393555
      ],
      [
        "▁மட்டும்",
        -10.255746841430664
      ],
      [
        "ತ",
        -10.256420135498047
      ],
      [
        "▁ਵੱਡੀ",
        -10.256471633911133
      ],
      [
        "▁गिरफ्तार",
        -10.257246971130371
      ],
      [
        "▁പാർട്ടി",
        -10.257635116577148
      ],
      [
        "▁ಸುಮಾರು",
        -10.25795841217041
      ],
      [
        "▁വില",
        -10.257994651794434
      ],
      [
        "▁ছাড়া",
        -10.25805950164795
      ],
      [
        "▁बच्चे",
        -10.258278846740723
      ],
      [
        "▁પી",
        -10.258299827575684
      ],
      [
        "▁ಹೊಂದಿದೆ",
        -10.259284019470215
      ],
      [
        "▁ஆ",
        -10.260157585144043
      ],
      [
        "▁शिकायत",
        -10.260208129882812
      ],
      [
        "▁येणार",
        -10.260287284851074
      ],
      [
        "▁ਬੰਦ",
        -10.260293006896973
      ],
      [
        "▁going",
        -10.260641098022461
      ],
      [
        "▁উপর",
        -10.260839462280273
      ],
      [
        "્યો",
        -10.260894775390625
      ],
      [
        "▁ਸਿੱਖਿਆ",
        -10.261000633239746
      ],
      [
        "▁ਵਾਲਾ",
        -10.261582374572754
      ],
      [
        "▁ಬಂದ",
        -10.262191772460938
      ],
      [
        "▁இருக்கிறது",
        -10.263422012329102
      ],
      [
        "▁ਓ",
        -10.263449668884277
      ],
      [
        "%",
        -10.263971328735352
      ],
      [
        "▁બંને",
        -10.26421070098877
      ],
      [
        "▁दक्षिण",
        -10.264269828796387
      ],
      [
        "▁members",
        -10.264531135559082
      ],
      [
        "▁along",
        -10.264678001403809
      ],
      [
        "8",
        -10.265023231506348
      ],
      [
        "▁बाल",
        -10.265089988708496
      ],
      [
        "▁end",
        -10.265569686889648
      ],
      [
        "▁બીજા",
        -10.265942573547363
      ],
      [
        "నీ",
        -10.266138076782227
      ],
      [
        "▁अंतिम",
        -10.266507148742676
      ],
      [
        "▁ਗੁਰਦੁਆਰਾ",
        -10.26656723022461
      ],
      [
        "▁माना",
        -10.266700744628906
      ],
      [
        "▁समर्थन",
        -10.267194747924805
      ],
      [
        "▁ਮੌਤ",
        -10.267194747924805
      ],
      [
        "▁Twitter",
        -10.267691612243652
      ],
      [
        "▁च्या",
        -10.267749786376953
      ],
      [
        "▁நீங்கள்",
        -10.268065452575684
      ],
      [
        "களையும்",
        -10.268107414245605
      ],
      [
        "▁ಬಳಿಕ",
        -10.268171310424805
      ],
      [
        "▁டி",
        -10.268238067626953
      ],
      [
        "▁പ്രത്യേക",
        -10.269444465637207
      ],
      [
        "▁ভারতের",
        -10.27001953125
      ],
      [
        "▁पेश",
        -10.27022647857666
      ],
      [
        "▁सा",
        -10.27031421661377
      ],
      [
        "▁ਸ਼ਰਮਾ",
        -10.270466804504395
      ],
      [
        "▁இந்நிலையில்",
        -10.270524024963379
      ],
      [
        "▁ಕೋಟಿ",
        -10.271156311035156
      ],
      [
        "▁सह",
        -10.271382331848145
      ],
      [
        "▁എൻ",
        -10.271930694580078
      ],
      [
        "▁कानून",
        -10.271989822387695
      ],
      [
        "▁होईल",
        -10.272584915161133
      ],
      [
        "▁स्वास्थ्य",
        -10.272672653198242
      ],
      [
        "▁ਅੱਗੇ",
        -10.272774696350098
      ],
      [
        "▁look",
        -10.273536682128906
      ],
      [
        "▁ಉತ್ತರ",
        -10.274036407470703
      ],
      [
        "▁ప్రస్తుతం",
        -10.274452209472656
      ],
      [
        "▁सचिव",
        -10.274462699890137
      ],
      [
        "▁सामाजिक",
        -10.274599075317383
      ],
      [
        "▁સારી",
        -10.274737358093262
      ],
      [
        "▁हासिल",
        -10.27514934539795
      ],
      [
        "▁president",
        -10.275565147399902
      ],
      [
        "▁गये",
        -10.27558422088623
      ],
      [
        "▁రోజు",
        -10.275847434997559
      ],
      [
        "▁സെക്രട്ടറി",
        -10.276297569274902
      ],
      [
        "▁ਮੈਂਬਰ",
        -10.276392936706543
      ],
      [
        "▁ச",
        -10.276734352111816
      ],
      [
        "ങ്ങളിൽ",
        -10.27709674835205
      ],
      [
        "▁મદદ",
        -10.277368545532227
      ],
      [
        "▁છતાં",
        -10.277688026428223
      ],
      [
        "▁तेव्हा",
        -10.278660774230957
      ],
      [
        "▁कदम",
        -10.279550552368164
      ],
      [
        "▁want",
        -10.279748916625977
      ],
      [
        "▁लिखा",
        -10.279794692993164
      ],
      [
        "▁പരാതി",
        -10.279845237731934
      ],
      [
        "▁ਭਾਜਪਾ",
        -10.280305862426758
      ],
      [
        "▁வேலை",
        -10.281693458557129
      ],
      [
        "ਸੀ",
        -10.282209396362305
      ],
      [
        "లేదు",
        -10.282610893249512
      ],
      [
        "▁അടുത്ത",
        -10.282635688781738
      ],
      [
        "▁చేసే",
        -10.282727241516113
      ],
      [
        "▁ਉੱਤੇ",
        -10.28279972076416
      ],
      [
        "▁मागणी",
        -10.282809257507324
      ],
      [
        "பி",
        -10.283162117004395
      ],
      [
        "തായി",
        -10.283683776855469
      ],
      [
        "▁దీంతో",
        -10.28372859954834
      ],
      [
        "▁করছেন",
        -10.283774375915527
      ],
      [
        "▁ओ",
        -10.283963203430176
      ],
      [
        "▁ఉంటాయి",
        -10.28406047821045
      ],
      [
        "▁कर्मचारी",
        -10.284135818481445
      ],
      [
        "▁ला",
        -10.284305572509766
      ],
      [
        "▁થયા",
        -10.284586906433105
      ],
      [
        "▁जमा",
        -10.284758567810059
      ],
      [
        "▁ছেলে",
        -10.284914016723633
      ],
      [
        "▁ହୋଇଛି",
        -10.28510856628418
      ],
      [
        "ந்து",
        -10.285120964050293
      ],
      [
        "வ",
        -10.285170555114746
      ],
      [
        "▁থেকেই",
        -10.285988807678223
      ],
      [
        "ാതെ",
        -10.28632926940918
      ],
      [
        "வி",
        -10.286605834960938
      ],
      [
        "▁കു",
        -10.287851333618164
      ],
      [
        "▁प्रकाश",
        -10.287877082824707
      ],
      [
        "▁ਕੇਂਦਰ",
        -10.288105010986328
      ],
      [
        "▁కాబట్టి",
        -10.288215637207031
      ],
      [
        "▁সালের",
        -10.288440704345703
      ],
      [
        "▁ಕಾರ್ಯ",
        -10.288625717163086
      ],
      [
        "▁கட்சி",
        -10.289441108703613
      ],
      [
        "▁ਨਵੀਂ",
        -10.289566040039062
      ],
      [
        "▁ਜਾਂਚ",
        -10.289883613586426
      ],
      [
        "▁ಜನರು",
        -10.289934158325195
      ],
      [
        "▁मंगलवार",
        -10.290172576904297
      ],
      [
        "▁পা",
        -10.290253639221191
      ],
      [
        "▁జిల్లా",
        -10.290324211120605
      ],
      [
        "മുള്ള",
        -10.290451049804688
      ],
      [
        "കളിൽ",
        -10.290465354919434
      ],
      [
        "u",
        -10.2909574508667
      ],
      [
        "▁ફરી",
        -10.29105281829834
      ],
      [
        "▁টি",
        -10.291061401367188
      ],
      [
        "▁month",
        -10.291387557983398
      ],
      [
        "বি",
        -10.291654586791992
      ],
      [
        "▁ତାଙ୍କ",
        -10.29198932647705
      ],
      [
        "డు",
        -10.292001724243164
      ],
      [
        "▁best",
        -10.292060852050781
      ],
      [
        "ುತ್ತವೆ",
        -10.292941093444824
      ],
      [
        "▁৩০",
        -10.29340648651123
      ],
      [
        "ત",
        -10.293479919433594
      ],
      [
        "ല",
        -10.293867111206055
      ],
      [
        "▁शकते",
        -10.294087409973145
      ],
      [
        "▁ਜਿਨ੍ਹਾਂ",
        -10.294105529785156
      ],
      [
        "▁என்பதை",
        -10.294441223144531
      ],
      [
        "▁രി",
        -10.294748306274414
      ],
      [
        "▁म्हणाले",
        -10.29564094543457
      ],
      [
        "▁सामान्य",
        -10.295878410339355
      ],
      [
        "▁ଯେ",
        -10.295988082885742
      ],
      [
        "▁_",
        -10.296281814575195
      ],
      [
        "ప్",
        -10.296854972839355
      ],
      [
        "▁ಇನ್ನೂ",
        -10.296897888183594
      ],
      [
        "্য",
        -10.296930313110352
      ],
      [
        "െന്ന്",
        -10.29714584350586
      ],
      [
        "▁எனக்கு",
        -10.297967910766602
      ],
      [
        "▁ಜಿಲ್ಲಾ",
        -10.298164367675781
      ],
      [
        "▁அதில்",
        -10.2982816696167
      ],
      [
        "ಿದ್ದ",
        -10.298736572265625
      ],
      [
        "ਬ",
        -10.29888916015625
      ],
      [
        "▁લે",
        -10.298920631408691
      ],
      [
        "▁दावा",
        -10.298972129821777
      ],
      [
        "▁ಮಾಡಿದ",
        -10.299966812133789
      ],
      [
        "▁ખાતે",
        -10.300275802612305
      ],
      [
        "▁സു",
        -10.3003511428833
      ],
      [
        "▁નવી",
        -10.300758361816406
      ],
      [
        "▁મળે",
        -10.30125617980957
      ],
      [
        "▁மட்டுமே",
        -10.301608085632324
      ],
      [
        "▁అంటే",
        -10.301636695861816
      ],
      [
        "▁विश्वास",
        -10.3021879196167
      ],
      [
        "▁social",
        -10.302366256713867
      ],
      [
        "▁କ",
        -10.302909851074219
      ],
      [
        "▁ਲਾਲ",
        -10.303038597106934
      ],
      [
        "▁ಭೇಟಿ",
        -10.303061485290527
      ],
      [
        "▁উদ্ধার",
        -10.303382873535156
      ],
      [
        "▁ରହିଛି",
        -10.303465843200684
      ],
      [
        "ுள்ளார்",
        -10.303893089294434
      ],
      [
        "▁மணி",
        -10.303934097290039
      ],
      [
        "▁To",
        -10.304388999938965
      ],
      [
        "▁বুলি",
        -10.304631233215332
      ],
      [
        "▁national",
        -10.304828643798828
      ],
      [
        "▁ಸಣ್ಣ",
        -10.305159568786621
      ],
      [
        "▁2008",
        -10.30555248260498
      ],
      [
        "▁सीमा",
        -10.306486129760742
      ],
      [
        "▁முடியும்",
        -10.306506156921387
      ],
      [
        "▁जन",
        -10.307291030883789
      ],
      [
        "വി",
        -10.3074951171875
      ],
      [
        "▁জানুয়ারি",
        -10.307615280151367
      ],
      [
        "▁development",
        -10.307671546936035
      ],
      [
        "▁ਬਣ",
        -10.308300971984863
      ],
      [
        "▁ਆਗੂ",
        -10.308343887329102
      ],
      [
        "▁ಜಿ",
        -10.308414459228516
      ],
      [
        "▁ரூ",
        -10.308512687683105
      ],
      [
        "▁এতে",
        -10.308597564697266
      ],
      [
        "▁ടെ",
        -10.309185028076172
      ],
      [
        "▁पुणे",
        -10.309535026550293
      ],
      [
        "▁देशों",
        -10.309645652770996
      ],
      [
        "யான",
        -10.309680938720703
      ],
      [
        "▁भाई",
        -10.309903144836426
      ],
      [
        "▁Sabha",
        -10.310150146484375
      ],
      [
        "▁show",
        -10.310405731201172
      ],
      [
        "▁போல",
        -10.310612678527832
      ],
      [
        "▁নিতে",
        -10.311151504516602
      ],
      [
        "▁બાળકો",
        -10.311163902282715
      ],
      [
        "▁पवार",
        -10.31132698059082
      ],
      [
        "▁ಐ",
        -10.311349868774414
      ],
      [
        "▁past",
        -10.311553001403809
      ],
      [
        "▁लग",
        -10.311567306518555
      ],
      [
        "▁చంద్రబాబు",
        -10.312222480773926
      ],
      [
        "▁पाच",
        -10.31226921081543
      ],
      [
        "▁ହୋଇ",
        -10.31303596496582
      ],
      [
        "தெரிவித்துள்ளார்",
        -10.31329345703125
      ],
      [
        "▁కలిసి",
        -10.313467025756836
      ],
      [
        "▁അതിന്റെ",
        -10.314253807067871
      ],
      [
        "ట్లు",
        -10.314370155334473
      ],
      [
        "▁ਰਾਮ",
        -10.315813064575195
      ],
      [
        "▁വാ",
        -10.316414833068848
      ],
      [
        "ಕ್ಕೂ",
        -10.316524505615234
      ],
      [
        "▁All",
        -10.317000389099121
      ],
      [
        "ਦੀ",
        -10.317097663879395
      ],
      [
        "▁ধরনের",
        -10.31727123260498
      ],
      [
        "▁থাকা",
        -10.317272186279297
      ],
      [
        "▁গতকাল",
        -10.317461967468262
      ],
      [
        "▁ठीक",
        -10.31777286529541
      ],
      [
        "▁ഓരോ",
        -10.31794261932373
      ],
      [
        "▁వివిధ",
        -10.318319320678711
      ],
      [
        "▁योग्य",
        -10.318370819091797
      ],
      [
        "▁આવા",
        -10.318507194519043
      ],
      [
        "▁பிறகு",
        -10.318675994873047
      ],
      [
        "▁వచ్చిన",
        -10.318855285644531
      ],
      [
        "▁ಮುಂದೆ",
        -10.318872451782227
      ],
      [
        "ದು",
        -10.318937301635742
      ],
      [
        "ಗಾಗಿ",
        -10.319133758544922
      ],
      [
        "ਗ",
        -10.319241523742676
      ],
      [
        "▁ಕೈ",
        -10.320260047912598
      ],
      [
        "വുമായി",
        -10.320319175720215
      ],
      [
        "▁senior",
        -10.32046890258789
      ],
      [
        "റ",
        -10.320830345153809
      ],
      [
        "▁ಕುರಿತು",
        -10.320837020874023
      ],
      [
        "▁ಸಾಕಷ್ಟು",
        -10.320854187011719
      ],
      [
        "ल्या",
        -10.321020126342773
      ],
      [
        "▁ഉണ്ട്",
        -10.321231842041016
      ],
      [
        "ಲ",
        -10.32145881652832
      ],
      [
        "▁ਗਿਣਤੀ",
        -10.321792602539062
      ],
      [
        "▁উপ",
        -10.322245597839355
      ],
      [
        "▁संजय",
        -10.32243537902832
      ],
      [
        "▁ਕਾਰ",
        -10.322542190551758
      ],
      [
        "▁જેથી",
        -10.322671890258789
      ],
      [
        "▁হয়নি",
        -10.322861671447754
      ],
      [
        "▁without",
        -10.32364273071289
      ],
      [
        "▁৮",
        -10.323657989501953
      ],
      [
        "লা",
        -10.324311256408691
      ],
      [
        "▁ಮ",
        -10.32435131072998
      ],
      [
        "প",
        -10.324407577514648
      ],
      [
        "▁મોટી",
        -10.324716567993164
      ],
      [
        "▁ಹಣ",
        -10.324823379516602
      ],
      [
        "▁করি",
        -10.324843406677246
      ],
      [
        "▁குறித்த",
        -10.325213432312012
      ],
      [
        "ారని",
        -10.325489044189453
      ],
      [
        "▁జరిగిన",
        -10.326099395751953
      ],
      [
        "▁बने",
        -10.326335906982422
      ],
      [
        "▁റിപ്പോർട്ട്",
        -10.326467514038086
      ],
      [
        "▁week",
        -10.326655387878418
      ],
      [
        "▁ಯಾವ",
        -10.32690715789795
      ],
      [
        "യുമായി",
        -10.326945304870605
      ],
      [
        "▁ஒன்று",
        -10.326988220214844
      ],
      [
        "▁Punjab",
        -10.327728271484375
      ],
      [
        "▁each",
        -10.32783317565918
      ],
      [
        "▁विकेट",
        -10.327836990356445
      ],
      [
        "▁ഇനി",
        -10.327919006347656
      ],
      [
        "▁claim",
        -10.328654289245605
      ],
      [
        "▁తెలుగు",
        -10.329798698425293
      ],
      [
        "▁పేరు",
        -10.329808235168457
      ],
      [
        "▁वेळ",
        -10.33010482788086
      ],
      [
        "ಿಲ್ಲ",
        -10.33017349243164
      ],
      [
        "▁ઓફ",
        -10.330195426940918
      ],
      [
        "▁त्यानंतर",
        -10.330537796020508
      ],
      [
        "▁గత",
        -10.330609321594238
      ],
      [
        "▁त",
        -10.330770492553711
      ],
      [
        "▁जास्त",
        -10.33088493347168
      ],
      [
        "▁খান",
        -10.330961227416992
      ],
      [
        "▁আগামী",
        -10.33173942565918
      ],
      [
        "▁अधिकार",
        -10.331945419311523
      ],
      [
        "▁माध्यम",
        -10.332255363464355
      ],
      [
        "▁കോടി",
        -10.332489967346191
      ],
      [
        "▁ਕਿਸਾਨ",
        -10.33251953125
      ],
      [
        "▁চার",
        -10.3326416015625
      ],
      [
        "ंना",
        -10.332886695861816
      ],
      [
        "▁ப",
        -10.333057403564453
      ],
      [
        "▁ਲੈਣ",
        -10.33381462097168
      ],
      [
        "▁got",
        -10.333844184875488
      ],
      [
        "▁जमीन",
        -10.333910942077637
      ],
      [
        "▁You",
        -10.334159851074219
      ],
      [
        "▁ધ",
        -10.334946632385254
      ],
      [
        "▁various",
        -10.335427284240723
      ],
      [
        "▁accused",
        -10.336033821105957
      ],
      [
        "▁તરફ",
        -10.336560249328613
      ],
      [
        "▁अच्छी",
        -10.337111473083496
      ],
      [
        "▁seen",
        -10.337234497070312
      ],
      [
        "▁elections",
        -10.337313652038574
      ],
      [
        "▁ਆਉਣ",
        -10.337379455566406
      ],
      [
        "▁ಮತ್ತೆ",
        -10.337699890136719
      ],
      [
        "▁এসব",
        -10.337774276733398
      ],
      [
        "▁১৪",
        -10.338228225708008
      ],
      [
        "▁ಭಾರತ",
        -10.338623046875
[...]
